
#ifdef __has_attribute
#define HAVE_ATTRIBUTE(x) __has_attribute(x)
#else
#define HAVE_ATTRIBUTE(x) 0
#endif
#if HAVE_ATTRIBUTE(aligned) || (defined(__GNUC__) && !defined(__clang__))
#define DATA_ALIGN_ATTRIBUTE __attribute__((aligned(4)))
#else
#define DATA_ALIGN_ATTRIBUTE
#endif

const unsigned char model_data[] DATA_ALIGN_ATTRIBUTE = {
	0x1c, 0x00, 0x00, 0x00, 0x54, 0x46, 0x4c, 0x33, 0x14, 0x00, 0x20, 0x00, 
	0x1c, 0x00, 0x18, 0x00, 0x14, 0x00, 0x10, 0x00, 0x0c, 0x00, 0x00, 0x00, 
	0x08, 0x00, 0x04, 0x00, 0x14, 0x00, 0x00, 0x00, 0x1c, 0x00, 0x00, 0x00, 
	0x8c, 0x00, 0x00, 0x00, 0xe4, 0x00, 0x00, 0x00, 0xd8, 0x1b, 0x00, 0x00, 
	0xe8, 0x1b, 0x00, 0x00, 0x5c, 0x21, 0x00, 0x00, 0x03, 0x00, 0x00, 0x00, 
	0x01, 0x00, 0x00, 0x00, 0x10, 0x00, 0x00, 0x00, 0x00, 0x00, 0x0a, 0x00, 
	0x10, 0x00, 0x0c, 0x00, 0x08, 0x00, 0x04, 0x00, 0x0a, 0x00, 0x00, 0x00, 
	0x0c, 0x00, 0x00, 0x00, 0x1c, 0x00, 0x00, 0x00, 0x38, 0x00, 0x00, 0x00, 
	0x0f, 0x00, 0x00, 0x00, 0x73, 0x65, 0x72, 0x76, 0x69, 0x6e, 0x67, 0x5f, 
	0x64, 0x65, 0x66, 0x61, 0x75, 0x6c, 0x74, 0x00, 0x01, 0x00, 0x00, 0x00, 
	0x04, 0x00, 0x00, 0x00, 0x9c, 0xff, 0xff, 0xff, 0x0a, 0x00, 0x00, 0x00, 
	0x04, 0x00, 0x00, 0x00, 0x07, 0x00, 0x00, 0x00, 0x64, 0x65, 0x6e, 0x73, 
	0x65, 0x5f, 0x32, 0x00, 0x01, 0x00, 0x00, 0x00, 0x04, 0x00, 0x00, 0x00, 
	0x0a, 0xe4, 0xff, 0xff, 0x04, 0x00, 0x00, 0x00, 0x07, 0x00, 0x00, 0x00, 
	0x69, 0x6e, 0x70, 0x75, 0x74, 0x5f, 0x31, 0x00, 0x02, 0x00, 0x00, 0x00, 
	0x34, 0x00, 0x00, 0x00, 0x04, 0x00, 0x00, 0x00, 0xdc, 0xff, 0xff, 0xff, 
	0x0d, 0x00, 0x00, 0x00, 0x04, 0x00, 0x00, 0x00, 0x13, 0x00, 0x00, 0x00, 
	0x43, 0x4f, 0x4e, 0x56, 0x45, 0x52, 0x53, 0x49, 0x4f, 0x4e, 0x5f, 0x4d, 
	0x45, 0x54, 0x41, 0x44, 0x41, 0x54, 0x41, 0x00, 0x08, 0x00, 0x0c, 0x00, 
	0x08, 0x00, 0x04, 0x00, 0x08, 0x00, 0x00, 0x00, 0x0c, 0x00, 0x00, 0x00, 
	0x04, 0x00, 0x00, 0x00, 0x13, 0x00, 0x00, 0x00, 0x6d, 0x69, 0x6e, 0x5f, 
	0x72, 0x75, 0x6e, 0x74, 0x69, 0x6d, 0x65, 0x5f, 0x76, 0x65, 0x72, 0x73, 
	0x69, 0x6f, 0x6e, 0x00, 0x0e, 0x00, 0x00, 0x00, 0xf0, 0x1a, 0x00, 0x00, 
	0xe8, 0x1a, 0x00, 0x00, 0x60, 0x1a, 0x00, 0x00, 0x3c, 0x1a, 0x00, 0x00, 
	0xb4, 0x19, 0x00, 0x00, 0x34, 0x11, 0x00, 0x00, 0x14, 0x03, 0x00, 0x00, 
	0xac, 0x00, 0x00, 0x00, 0xa4, 0x00, 0x00, 0x00, 0x9c, 0x00, 0x00, 0x00, 
	0x94, 0x00, 0x00, 0x00, 0x8c, 0x00, 0x00, 0x00, 0x6c, 0x00, 0x00, 0x00, 
	0x04, 0x00, 0x00, 0x00, 0xb6, 0xe4, 0xff, 0xff, 0x04, 0x00, 0x00, 0x00, 
	0x58, 0x00, 0x00, 0x00, 0x0c, 0x00, 0x00, 0x00, 0x08, 0x00, 0x0e, 0x00, 
	0x08, 0x00, 0x04, 0x00, 0x08, 0x00, 0x00, 0x00, 0x10, 0x00, 0x00, 0x00, 
	0x28, 0x00, 0x00, 0x00, 0x00, 0x00, 0x06, 0x00, 0x08, 0x00, 0x04, 0x00, 
	0x06, 0x00, 0x00, 0x00, 0x04, 0x00, 0x00, 0x00, 0x01, 0x00, 0x00, 0x00, 
	0xea, 0x03, 0x00, 0x00, 0x00, 0x00, 0x0a, 0x00, 0x10, 0x00, 0x0c, 0x00, 
	0x08, 0x00, 0x04, 0x00, 0x0a, 0x00, 0x00, 0x00, 0x02, 0x00, 0x00, 0x00, 
	0x02, 0x00, 0x00, 0x00, 0x04, 0x00, 0x00, 0x00, 0x06, 0x00, 0x00, 0x00, 
	0x32, 0x2e, 0x31, 0x34, 0x2e, 0x30, 0x00, 0x00, 0x1a, 0xe5, 0xff, 0xff, 
	0x04, 0x00, 0x00, 0x00, 0x10, 0x00, 0x00, 0x00, 0x31, 0x2e, 0x35, 0x2e, 
	0x30, 0x00, 0x00, 0x00, 0x00, 0x00, 0x00, 0x00, 0x00, 0x00, 0x00, 0x00, 
	0x6c, 0xe0, 0xff, 0xff, 0x70, 0xe0, 0xff, 0xff, 0x74, 0xe0, 0xff, 0xff, 
	0x78, 0xe0, 0xff, 0xff, 0x46, 0xe5, 0xff, 0xff, 0x04, 0x00, 0x00, 0x00, 
	0x58, 0x02, 0x00, 0x00, 0x82, 0x4e, 0x51, 0x3e, 0x35, 0xaa, 0xa3, 0x3e, 
	0x04, 0x17, 0xc1, 0x3d, 0xf4, 0xd4, 0xb2, 0xbe, 0x3f, 0x88, 0x51, 0xbe, 
	0xc1, 0x13, 0x95, 0x3e, 0xe9, 0x69, 0xa4, 0x3e, 0x5e, 0x5a, 0x7f, 0xbe, 
	0xc0, 0x36, 0xdc, 0x3c, 0x40, 0x8a, 0x10, 0x3c, 0x0a, 0x0a, 0x10, 0x3e, 
	0x14, 0x70, 0xa3, 0xbd, 0xa7, 0x8b, 0x85, 0x3e, 0x3c, 0xe6, 0xb6, 0xbe, 
	0xc8, 0x9b, 0x3e, 0x3d, 0x91, 0x61, 0xbb, 0x3e, 0xbc, 0xd9, 0xa9, 0x3d, 
	0x9e, 0xbc, 0x85, 0xbe, 0x7f, 0x2d, 0xd2, 0x3e, 0xcc, 0xae, 0x4b, 0xbe, 
	0x4b, 0x79, 0xc0, 0x3e, 0xb7, 0x73, 0xa9, 0x3e, 0x4a, 0x5a, 0x20, 0x3e, 
	0x3b, 0xbd, 0xab, 0x3e, 0xd0, 0x59, 0x2b, 0x3d, 0x44, 0xbd, 0xb7, 0x3d, 
	0xf4, 0xb6, 0xa9, 0x3d, 0xb0, 0x1d, 0xcd, 0xbe, 0xef, 0x60, 0xb2, 0x3e, 
	0x8f, 0xd8, 0xad, 0x3e, 0x60, 0xa8, 0x82, 0xbe, 0x86, 0xd4, 0x38, 0x3e, 
	0x1b, 0xae, 0xbf, 0xbe, 0x48, 0x9d, 0x40, 0xbd, 0xd6, 0x23, 0x08, 0xbe, 
	0xf3, 0x30, 0xcd, 0x3e, 0x54, 0x3f, 0xcb, 0xbe, 0xc8, 0xeb, 0x34, 0xbd, 
	0xec, 0xbe, 0xbe, 0x3d, 0x20, 0xb3, 0x73, 0x3d, 0x80, 0x87, 0x7a, 0x3c, 
	0x55, 0xf7, 0xb0, 0x3e, 0x20, 0x63, 0x47, 0x3c, 0x00, 0x3c, 0x03, 0x3c, 
	0xe8, 0xc4, 0x56, 0xbe, 0x00, 0xc0, 0xf4, 0xb9, 0x4a, 0xa1, 0x6a, 0x3e, 
	0x2e, 0x6a, 0x82, 0xbe, 0x63, 0x2e, 0xc1, 0x3e, 0xe8, 0xf3, 0x4c, 0xbd, 
	0xcc, 0xfc, 0xe3, 0x3d, 0xf3, 0x09, 0x8f, 0x3e, 0xe7, 0xf9, 0xa6, 0x3e, 
	0x60, 0x56, 0x65, 0x3d, 0xd0, 0x0f, 0x01, 0x3d, 0x0d, 0xd1, 0x5c, 0xbe, 
	0x3f, 0x34, 0xca, 0xbe, 0x15, 0xbc, 0x99, 0xbe, 0xcd, 0xbe, 0xa2, 0x3e, 
	0xc0, 0x30, 0x0c, 0xbe, 0xdc, 0x82, 0xc7, 0xbd, 0x34, 0x32, 0x85, 0x3d, 
	0xd0, 0x0b, 0xdd, 0xbc, 0x64, 0xc5, 0x8f, 0xbe, 0x54, 0xf5, 0xb7, 0xbe, 
	0x83, 0x6b, 0xa8, 0x3e, 0xce, 0xdf, 0x78, 0xbe, 0xb4, 0xc0, 0xfb, 0x3d, 
	0x98, 0xba, 0x6d, 0x3d, 0x04, 0xb4, 0xc5, 0xbd, 0x77, 0x7f, 0xa0, 0xbe, 
	0x20, 0x6d, 0x66, 0xbd, 0x82, 0x84, 0x66, 0x3e, 0xe2, 0xfc, 0xa9, 0xbe, 
	0x0b, 0xd4, 0x9d, 0x3e, 0xb0, 0x2a, 0xb8, 0x3c, 0x76, 0x55, 0x2b, 0x3e, 
	0x4f, 0x83, 0x87, 0x3e, 0xe5, 0x2b, 0x87, 0xbe, 0xe8, 0xe7, 0x9a, 0xbd, 
	0x50, 0x65, 0x9f, 0xbe, 0x15, 0x85, 0xa9, 0x3e, 0x65, 0x86, 0xaa, 0x3e, 
	0x24, 0x79, 0xc9, 0x3d, 0xf6, 0x2d, 0x00, 0xbe, 0x3a, 0x32, 0x86, 0xbe, 
	0x70, 0x19, 0x44, 0xbd, 0x52, 0x4f, 0x5c, 0x3e, 0x10, 0x8c, 0x94, 0x3d, 
	0xf1, 0xf0, 0x99, 0x3e, 0x9c, 0x46, 0xd7, 0x3d, 0x70, 0x3d, 0x4f, 0xbd, 
	0xd0, 0x28, 0x09, 0xbe, 0x32, 0x7d, 0x3b, 0x3e, 0x46, 0x85, 0x72, 0x3e, 
	0xa9, 0xe3, 0xcd, 0xbe, 0x00, 0x49, 0xef, 0x3b, 0x4c, 0x88, 0xa8, 0xbd, 
	0x69, 0x24, 0x86, 0xbe, 0x80, 0xa8, 0x6a, 0x3c, 0x27, 0x50, 0xd0, 0x3e, 
	0x04, 0x1a, 0x49, 0xbe, 0x30, 0x2c, 0x72, 0x3d, 0x40, 0x35, 0x64, 0x3d, 
	0x9a, 0x1a, 0x5e, 0x3e, 0x4c, 0xda, 0xb0, 0xbe, 0xc7, 0xf9, 0x2e, 0xbe, 
	0x96, 0x3f, 0x2c, 0x3e, 0x05, 0x1c, 0xac, 0x3e, 0xc4, 0x3b, 0xf7, 0x3d, 
	0x8b, 0x2c, 0x9a, 0x3e, 0xfc, 0x08, 0x7f, 0xbe, 0xaf, 0x77, 0x3f, 0xbe, 
	0xa4, 0x26, 0xd6, 0x3d, 0x05, 0x05, 0x5e, 0xbe, 0x1f, 0x6c, 0x6d, 0xbe, 
	0xbb, 0x27, 0xb9, 0x3e, 0x56, 0x48, 0x5b, 0x3e, 0xd4, 0x5c, 0xcb, 0xbe, 
	0x00, 0x4b, 0xa1, 0x3a, 0x2a, 0xf3, 0xb9, 0xbe, 0x4e, 0xad, 0x1a, 0x3e, 
	0x91, 0x0a, 0xa9, 0x3e, 0x4b, 0xb0, 0xbd, 0x3e, 0x1b, 0x16, 0xa7, 0x3e, 
	0xfc, 0x96, 0x26, 0xbe, 0x58, 0x76, 0x32, 0x3d, 0x6a, 0x3f, 0x46, 0xbe, 
	0xbe, 0xd7, 0x2d, 0x3e, 0x58, 0xfa, 0x6e, 0x3d, 0xac, 0x16, 0x92, 0xbd, 
	0x92, 0x81, 0x12, 0x3e, 0x19, 0x67, 0x96, 0x3e, 0xd4, 0xc1, 0xee, 0xbd, 
	0x88, 0x02, 0xb4, 0xbd, 0x49, 0xa7, 0x93, 0x3e, 0x78, 0x96, 0x64, 0xbd, 
	0x12, 0xa5, 0x27, 0x3e, 0x80, 0x44, 0xbd, 0xbe, 0x25, 0x41, 0xb7, 0x3e, 
	0x69, 0xcc, 0x94, 0xbe, 0x48, 0x67, 0xc4, 0xbd, 0xe4, 0x9c, 0xcc, 0xbd, 
	0xcf, 0x3e, 0x89, 0x3e, 0x9c, 0x19, 0x1d, 0xbe, 0x64, 0x3c, 0xcd, 0xbe, 
	0x0a, 0x14, 0x45, 0x3e, 0xb3, 0xaa, 0xbe, 0x3e, 0x3b, 0xb7, 0xb2, 0x3e, 
	0xe2, 0x15, 0x13, 0x3e, 0xaa, 0xe7, 0xff, 0xff, 0x04, 0x00, 0x00, 0x00, 
	0x10, 0x0e, 0x00, 0x00, 0xb0, 0xc5, 0x93, 0x3c, 0x94, 0x0c, 0x25, 0x3e, 
	0x5e, 0x81, 0x7e, 0x3e, 0xb4, 0x7d, 0xe5, 0xbd, 0x20, 0x02, 0x93, 0xbc, 
	0x38, 0xf0, 0xbf, 0x3d, 0x08, 0xb8, 0xa9, 0xbd, 0xe8, 0xc0, 0x02, 0x3e, 
	0x4d, 0x8f, 0x84, 0xbe, 0x8c, 0x3f, 0xe9, 0xbd, 0x4f, 0xca, 0x2e, 0xbe, 
	0x05, 0xc2, 0x9f, 0x3e, 0x2f, 0x7e, 0x12, 0xbe, 0x6e, 0x82, 0x2b, 0x3e, 
	0x77, 0xd5, 0xa0, 0x3e, 0x3b, 0x76, 0x90, 0x3e, 0x90, 0xd0, 0x17, 0x3d, 
	0x64, 0xe8, 0x28, 0xbe, 0xe4, 0x86, 0x95, 0x3d, 0x4d, 0x2e, 0x93, 0x3e, 
	0xa4, 0x6c, 0x9f, 0xbe, 0xd4, 0xd3, 0x3d, 0xbe, 0xbb, 0xf3, 0x9c, 0x3e, 
	0xd7, 0x18, 0x87, 0x3e, 0x49, 0xd3, 0x9c, 0x3e, 0xa0, 0xb7, 0x5c, 0xbc, 
	0x80, 0x08, 0xba, 0xbb, 0x30, 0xc6, 0xd5, 0x3c, 0x20, 0xa8, 0xe5, 0xbc, 
	0x80, 0xb0, 0xb1, 0x3d, 0x90, 0x69, 0xdb, 0x3d, 0x60, 0x70, 0x06, 0x3e, 
	0x50, 0x77, 0x50, 0x3d, 0x7a, 0xe4, 0x4b, 0xbe, 0x62, 0xc2, 0xf5, 0xbd, 
	0x8f, 0x87, 0x9f, 0x3e, 0xc8, 0xfb, 0xac, 0xbd, 0xac, 0x1d, 0xd5, 0x3d, 
	0xec, 0xd9, 0xdc, 0x3d, 0xa1, 0x8d, 0x14, 0xbe, 0x59, 0x8b, 0x19, 0xbe, 
	0x18, 0x4f, 0x14, 0xbd, 0x9a, 0x93, 0x21, 0x3e, 0x5e, 0x2b, 0x6d, 0x3e, 
	0xb0, 0x01, 0xa5, 0x3c, 0x08, 0x22, 0x8e, 0x3d, 0x12, 0xe9, 0x70, 0xbe, 
	0x4f, 0xd8, 0x81, 0x3e, 0xd8, 0x75, 0x2a, 0xbd, 0xaa, 0x41, 0x97, 0xbe, 
	0xe0, 0x22, 0xa8, 0x3c, 0x2a, 0xb3, 0x9b, 0xbd, 0x56, 0x52, 0x61, 0xbe, 
	0x68, 0x16, 0x53, 0xbe, 0xd0, 0xd0, 0x15, 0x3e, 0xe6, 0x18, 0x0a, 0xbe, 
	0xa0, 0x7d, 0x0f, 0x3c, 0xc3, 0xd9, 0x91, 0xbe, 0x4c, 0xcf, 0x9e, 0xbe, 
	0xe0, 0xfc, 0x12, 0x3d, 0x98, 0xf6, 0xcd, 0xbd, 0xb8, 0x58, 0x8a, 0xbe, 
	0x5d, 0xd5, 0x1c, 0xbe, 0xbe, 0xae, 0x1f, 0x3e, 0x60, 0xed, 0x2f, 0x3e, 
	0xdb, 0x00, 0x08, 0xbe, 0x97, 0xdc, 0x94, 0xbe, 0x16, 0x15, 0x53, 0x3e, 
	0x44, 0x44, 0xff, 0x3d, 0x12, 0x55, 0x8b, 0xbe, 0xff, 0xb2, 0x8b, 0x3e, 
	0xe8, 0xa8, 0x25, 0xbd, 0xe0, 0x8b, 0x02, 0x3c, 0x02, 0x24, 0x6f, 0x3e, 
	0x73, 0x83, 0x83, 0x3e, 0x7a, 0xa1, 0x91, 0xbd, 0x14, 0xff, 0x21, 0xbe, 
	0x90, 0xe7, 0x2e, 0x3e, 0x3b, 0x94, 0x94, 0x3e, 0x09, 0x39, 0x0a, 0xbe, 
	0x9e, 0x30, 0x5d, 0x3e, 0x6e, 0x01, 0x5c, 0xbe, 0xb5, 0x4a, 0x8c, 0xbe, 
	0x20, 0xe8, 0x4b, 0x3d, 0x50, 0x43, 0x42, 0xbd, 0x12, 0x36, 0x8d, 0xbe, 
	0x4e, 0xae, 0x7f, 0x3e, 0x64, 0x00, 0x95, 0xbe, 0xe8, 0xf5, 0x4d, 0xbd, 
	0x48, 0xd8, 0x13, 0x3d, 0x10, 0xff, 0xcc, 0x3d, 0xba, 0x8f, 0x4b, 0xbe, 
	0xe0, 0xcc, 0x7c, 0xbd, 0xcc, 0xc2, 0x1a, 0x3e, 0x10, 0x0d, 0xfa, 0xbc, 
	0xf0, 0x0a, 0xe8, 0x3c, 0x38, 0xa3, 0x43, 0xbd, 0x84, 0x1d, 0x2c, 0xbe, 
	0x62, 0x56, 0x29, 0x3e, 0xb0, 0x03, 0xd9, 0xbd, 0xa3, 0xa4, 0x99, 0x3e, 
	0x40, 0x14, 0xb9, 0xbc, 0xac, 0x58, 0xbc, 0xbd, 0xd1, 0x3c, 0x98, 0x3e, 
	0x99, 0x11, 0x88, 0x3e, 0x20, 0x50, 0x4f, 0xbd, 0x2d, 0xb2, 0x87, 0x3e, 
	0xe7, 0xc1, 0x8a, 0x3e, 0xc4, 0x62, 0x42, 0xbe, 0x10, 0xdf, 0x93, 0xbe, 
	0xd0, 0xfa, 0x24, 0xbd, 0x38, 0x56, 0x88, 0x3d, 0x97, 0x75, 0x96, 0x3e, 
	0x00, 0x42, 0x1e, 0x3b, 0x62, 0x35, 0x41, 0x3e, 0x5a, 0xb8, 0x63, 0xbe, 
	0x60, 0xff, 0xe8, 0x3c, 0x4a, 0x0a, 0x23, 0xbe, 0xcc, 0x0f, 0x0e, 0x3e, 
	0x7e, 0xd6, 0x60, 0x3e, 0xc2, 0x41, 0xb8, 0xbd, 0x39, 0xfe, 0x96, 0x3e, 
	0x38, 0x8f, 0x4c, 0xbe, 0x0d, 0x5f, 0x25, 0xbe, 0xfa, 0x00, 0x46, 0x3e, 
	0x8a, 0x0c, 0xdf, 0xbd, 0x94, 0xea, 0x30, 0x3e, 0x48, 0x61, 0x2a, 0xbd, 
	0xf8, 0xef, 0x4d, 0xbe, 0x5a, 0xd9, 0x79, 0x3e, 0x39, 0x94, 0x8c, 0xbe, 
	0xcc, 0x11, 0x82, 0xbd, 0xde, 0x72, 0x2d, 0x3e, 0x32, 0xe8, 0x25, 0x3e, 
	0x3c, 0xb6, 0x70, 0xbe, 0xc7, 0xc9, 0x91, 0x3e, 0x61, 0x57, 0x3b, 0xbe, 
	0xc6, 0x24, 0x4d, 0x3e, 0xe4, 0x3f, 0x8e, 0xbe, 0xeb, 0x81, 0x32, 0xbe, 
	0x8b, 0xd7, 0x30, 0xbe, 0xbd, 0x83, 0x89, 0x3e, 0x20, 0x59, 0xa6, 0xbd, 
	0x50, 0x53, 0xa3, 0x3d, 0x00, 0x8b, 0xca, 0x3d, 0xf2, 0x37, 0x57, 0x3e, 
	0x8b, 0xd1, 0x48, 0xbe, 0xa6, 0x57, 0x90, 0xbe, 0xd0, 0x0e, 0x82, 0xbe, 
	0x8b, 0x9e, 0x00, 0xbe, 0xa6, 0x13, 0x5e, 0x3e, 0xba, 0x05, 0x74, 0x3e, 
	0x40, 0x22, 0x27, 0xbe, 0xec, 0x7b, 0x91, 0xbd, 0xb0, 0xcd, 0x4b, 0xbe, 
	0x68, 0x72, 0x1b, 0xbd, 0xce, 0x52, 0xa9, 0xbd, 0xba, 0x16, 0xa0, 0xbd, 
	0x00, 0x42, 0xb5, 0x3c, 0xb8, 0xdc, 0x46, 0xbe, 0x32, 0x6c, 0x35, 0x3e, 
	0xb0, 0xac, 0xce, 0x3c, 0xfc, 0x15, 0xfc, 0x3d, 0xac, 0xe7, 0x9d, 0xbd, 
	0x76, 0xa6, 0x0f, 0xbe, 0xdc, 0xd0, 0x89, 0xbe, 0x78, 0x63, 0x0d, 0xbe, 
	0x46, 0x38, 0x0e, 0x3e, 0xc0, 0x3b, 0x45, 0xbe, 0xac, 0xce, 0x27, 0xbe, 
	0x6c, 0x4e, 0x77, 0xbe, 0x59, 0xb8, 0x22, 0xbe, 0xe0, 0xa1, 0x7e, 0x3c, 
	0xc4, 0x0c, 0x83, 0x3d, 0x86, 0x2a, 0x40, 0x3e, 0xaa, 0x17, 0x46, 0x3e, 
	0xc0, 0xee, 0x82, 0x3c, 0x07, 0x44, 0x99, 0xbe, 0xd0, 0xa8, 0xe2, 0x3c, 
	0x58, 0xe6, 0x76, 0x3d, 0x56, 0xee, 0x24, 0xbe, 0x5c, 0x50, 0xae, 0x3d, 
	0x50, 0x12, 0xb1, 0x3c, 0xd2, 0xbb, 0x37, 0x3e, 0x90, 0xef, 0x67, 0xbd, 
	0x68, 0xa6, 0xa1, 0xbe, 0x65, 0x77, 0x84, 0x3e, 0x80, 0x65, 0x97, 0x3b, 
	0xa6, 0x10, 0x76, 0xbe, 0xf3, 0x78, 0x13, 0xbe, 0x56, 0x93, 0x7a, 0x3e, 
	0xe3, 0x3e, 0x0d, 0xbe, 0x28, 0x0c, 0x87, 0xbd, 0x0f, 0xd5, 0x85, 0x3e, 
	0x58, 0x8c, 0x49, 0xbd, 0x4c, 0xf6, 0x85, 0xbe, 0x70, 0xdb, 0xa7, 0x3d, 
	0xc1, 0xa6, 0x25, 0xbe, 0xcd, 0x2c, 0x86, 0x3e, 0x95, 0x30, 0x01, 0xbe, 
	0xfc, 0xb9, 0x38, 0x3e, 0x40, 0x27, 0xfb, 0xbc, 0x19, 0x54, 0x9f, 0x3e, 
	0xa4, 0x3b, 0xba, 0xbd, 0xb6, 0xa3, 0x15, 0xbe, 0xa8, 0xc2, 0x67, 0xbd, 
	0x34, 0x66, 0xc1, 0xbd, 0x72, 0x81, 0x87, 0xbe, 0xeb, 0x4e, 0x94, 0xbe, 
	0x55, 0x6e, 0x99, 0x3e, 0xf0, 0xa1, 0xac, 0x3d, 0x08, 0x19, 0x19, 0x3d, 
	0x30, 0x47, 0x89, 0x3d, 0xe6, 0x05, 0x68, 0x3e, 0xb2, 0x3c, 0x4e, 0xbe, 
	0x4c, 0x8e, 0x9a, 0x3d, 0x23, 0x22, 0x9a, 0x3e, 0xf5, 0x60, 0x20, 0xbe, 
	0xc6, 0xab, 0x65, 0x3e, 0x74, 0xf9, 0xe6, 0x3d, 0x8e, 0x29, 0x1f, 0x3e, 
	0xb0, 0x33, 0x00, 0xbd, 0x18, 0x0c, 0x2e, 0xbd, 0x00, 0xfc, 0x9f, 0x3d, 
	0xfa, 0x8e, 0x7e, 0x3e, 0x40, 0x3b, 0xc8, 0x3d, 0x61, 0x24, 0x85, 0x3e, 
	0xa5, 0xef, 0x81, 0x3e, 0x60, 0xc3, 0x31, 0xbc, 0xa8, 0x66, 0xdd, 0x3d, 
	0x2e, 0x85, 0x02, 0x3e, 0x5e, 0xc6, 0x61, 0x3e, 0xea, 0xdc, 0x4c, 0x3e, 
	0xc0, 0x3d, 0xb7, 0x3b, 0xb8, 0x4c, 0x1a, 0xbd, 0xdd, 0xdc, 0x54, 0xbe, 
	0x6a, 0xaf, 0x92, 0xbe, 0xa0, 0xa4, 0xab, 0xbc, 0x07, 0xda, 0x49, 0xbe, 
	0xb5, 0x95, 0x09, 0xbe, 0xa4, 0xff, 0xb9, 0xbd, 0xc6, 0x11, 0x0f, 0x3e, 
	0x14, 0xe2, 0xaa, 0xbd, 0xd8, 0xb2, 0xfe, 0x3d, 0xc3, 0x5a, 0x62, 0xbe, 
	0xc4, 0x2d, 0x66, 0xbe, 0x40, 0x15, 0x64, 0x3c, 0xaf, 0xed, 0x92, 0x3e, 
	0xd6, 0xf5, 0x9c, 0xbd, 0x12, 0x8f, 0x27, 0x3e, 0x88, 0x4b, 0x86, 0x3d, 
	0x60, 0x8d, 0x1b, 0xbd, 0x78, 0xb1, 0x6a, 0x3d, 0xb8, 0x98, 0xe1, 0xbd, 
	0x9b, 0x7b, 0x91, 0x3e, 0x2c, 0x88, 0xac, 0x3d, 0xc0, 0xf0, 0xd5, 0x3d, 
	0xc6, 0x02, 0x3c, 0xbe, 0xa3, 0x42, 0x33, 0xbe, 0x0c, 0x73, 0x7b, 0xbe, 
	0xba, 0xd9, 0x43, 0x3e, 0x00, 0xe8, 0x1e, 0xba, 0xf4, 0x99, 0xec, 0x3d, 
	0x98, 0x1a, 0xac, 0xbd, 0x76, 0x50, 0x75, 0xbe, 0xc8, 0xbb, 0xb2, 0x3d, 
	0x06, 0x9e, 0x9a, 0xbe, 0xe0, 0xdf, 0x7e, 0xbc, 0x2f, 0xb8, 0x90, 0x3e, 
	0xf6, 0xeb, 0x23, 0x3e, 0xf0, 0x10, 0x38, 0x3e, 0xee, 0x33, 0x4c, 0xbe, 
	0x9e, 0x4c, 0x43, 0x3e, 0x5d, 0x5a, 0x96, 0xbe, 0x2e, 0x2c, 0x12, 0xbe, 
	0x08, 0x3b, 0x81, 0x3d, 0xa8, 0xbb, 0xca, 0x3d, 0xf0, 0x1e, 0x6d, 0xbd, 
	0x1d, 0x35, 0x93, 0x3e, 0x14, 0xec, 0x36, 0x3e, 0xb2, 0x41, 0x84, 0xbe, 
	0x6e, 0x1b, 0x0a, 0x3e, 0xcf, 0xd2, 0x1b, 0xbe, 0x80, 0xfa, 0x7e, 0x3c, 
	0x1c, 0x1c, 0x85, 0xbe, 0x60, 0x3f, 0x10, 0x3e, 0x6d, 0x1a, 0x1b, 0xbe, 
	0x71, 0x41, 0x58, 0xbe, 0x48, 0x3c, 0x6c, 0xbd, 0x4a, 0x47, 0xf5, 0xbd, 
	0x34, 0xd4, 0xfe, 0x3d, 0x90, 0xb5, 0xce, 0x3c, 0x2f, 0xf8, 0x42, 0xbe, 
	0xa8, 0x3e, 0x6f, 0xbe, 0x84, 0x95, 0x9b, 0xbd, 0x0e, 0xfa, 0x78, 0x3e, 
	0xfb, 0xe5, 0x52, 0xbe, 0x70, 0x27, 0x6e, 0x3d, 0x52, 0x68, 0x80, 0xbe, 
	0x4e, 0x0b, 0x75, 0xbe, 0x63, 0xcf, 0x6b, 0xbe, 0xe1, 0xa5, 0xa1, 0x3e, 
	0x86, 0xf8, 0x77, 0x3e, 0x24, 0x20, 0x02, 0x3e, 0x6e, 0xb1, 0x38, 0x3e, 
	0xd2, 0x4b, 0xbf, 0xbd, 0xd7, 0x34, 0x9c, 0x3e, 0xc6, 0xc3, 0xc3, 0xbd, 
	0x06, 0xad, 0x5c, 0x3e, 0x57, 0xd5, 0xa0, 0x3e, 0xd0, 0x96, 0x47, 0x3d, 
	0x34, 0xbf, 0x88, 0xbd, 0x62, 0xe2, 0x45, 0xbe, 0xd3, 0xd9, 0x9c, 0x3e, 
	0xc1, 0x16, 0x80, 0x3e, 0xa0, 0x87, 0x30, 0xbd, 0xbe, 0x04, 0x64, 0x3e, 
	0x39, 0xdd, 0x9e, 0x3e, 0x3f, 0x1f, 0x41, 0xbe, 0x85, 0xdc, 0x53, 0xbe, 
	0x6b, 0x50, 0x07, 0xbe, 0xee, 0xf3, 0x5c, 0x3e, 0x60, 0x98, 0x7d, 0xbe, 
	0x00, 0x5e, 0x2f, 0xbd, 0x88, 0x9f, 0x8c, 0x3d, 0x4b, 0x16, 0x07, 0xbe, 
	0xe1, 0xd3, 0x85, 0xbe, 0xc0, 0x2a, 0x86, 0xbc, 0xc0, 0x67, 0xce, 0x3b, 
	0xc0, 0x2a, 0xd0, 0x3b, 0xc8, 0x89, 0xf5, 0xbd, 0x27, 0x96, 0x86, 0x3e, 
	0x1b, 0x98, 0xa1, 0x3e, 0xa0, 0x13, 0x56, 0xbd, 0x34, 0xa2, 0x17, 0x3e, 
	0x01, 0x91, 0x13, 0xbe, 0x16, 0x7d, 0xbe, 0xbd, 0xaa, 0x22, 0x7b, 0x3e, 
	0x80, 0x65, 0x8c, 0xbe, 0x56, 0x97, 0x44, 0x3e, 0xf0, 0xf1, 0x0b, 0xbe, 
	0x41, 0xb8, 0x8e, 0xbe, 0xcf, 0x57, 0x00, 0xbe, 0x25, 0x40, 0x8c, 0xbe, 
	0x71, 0x90, 0x97, 0x3e, 0x78, 0x7b, 0x3a, 0xbd, 0x74, 0x18, 0xa9, 0x3d, 
	0x8a, 0x6a, 0x69, 0xbe, 0xa9, 0xcb, 0x73, 0xbe, 0xb8, 0xc8, 0x8c, 0x3d, 
	0x39, 0x06, 0x27, 0xbe, 0x20, 0xaf, 0xee, 0x3c, 0x30, 0x6a, 0x04, 0xbd, 
	0xc8, 0x76, 0xfa, 0x3d, 0x8e, 0x6a, 0x4d, 0x3e, 0x26, 0xed, 0x9f, 0xbe, 
	0x00, 0x4b, 0xc4, 0xbb, 0xe5, 0xf8, 0x88, 0xbe, 0xde, 0x0e, 0x18, 0xbe, 
	0xa8, 0x8b, 0x78, 0xbe, 0xd8, 0xb7, 0x7d, 0xbd, 0x44, 0xda, 0x09, 0xbe, 
	0x3c, 0x5d, 0xa9, 0x3d, 0x96, 0x2b, 0x75, 0x3e, 0xf0, 0x03, 0x8f, 0xbd, 
	0x17, 0x7d, 0x3e, 0xbe, 0xf0, 0x9a, 0x30, 0x3d, 0xfe, 0x20, 0x69, 0xbe, 
	0xcc, 0x08, 0x04, 0x3e, 0xc8, 0x94, 0x2d, 0x3e, 0xfe, 0xba, 0x68, 0x3e, 
	0x30, 0xef, 0xd3, 0xbc, 0xb6, 0x70, 0x1a, 0xbe, 0x42, 0x4f, 0x89, 0xbe, 
	0x87, 0x61, 0x9b, 0x3e, 0xa2, 0xd7, 0x51, 0x3e, 0xc5, 0xd8, 0x83, 0xbe, 
	0x2e, 0x21, 0x37, 0xbe, 0x4b, 0xa6, 0x8f, 0x3e, 0x07, 0xe4, 0x4c, 0xbe, 
	0xa2, 0x39, 0xe5, 0xbd, 0x59, 0x21, 0x9d, 0x3e, 0xee, 0xde, 0x64, 0x3e, 
	0xa6, 0x13, 0x8e, 0xbd, 0xc8, 0x66, 0x9c, 0x3d, 0xe0, 0xa4, 0x27, 0xbc, 
	0x8d, 0x35, 0x0f, 0xbe, 0x54, 0xad, 0xc3, 0x3d, 0x82, 0x65, 0x41, 0xbe, 
	0x21, 0xae, 0x6c, 0xbe, 0x40, 0x14, 0x80, 0x3c, 0x20, 0x80, 0x68, 0x3c, 
	0xe4, 0x8f, 0xa5, 0x3d, 0x12, 0x11, 0x00, 0x3e, 0x26, 0x08, 0x35, 0xbe, 
	0x12, 0xc2, 0x3b, 0x3e, 0xaa, 0xd0, 0x57, 0x3e, 0xc0, 0xff, 0xa7, 0x3c, 
	0x3f, 0xda, 0x9c, 0xbe, 0x27, 0xf2, 0x9c, 0xbe, 0x60, 0x56, 0x77, 0x3d, 
	0x91, 0xa3, 0x61, 0xbe, 0x1e, 0x8b, 0x5d, 0x3e, 0x88, 0x40, 0x8a, 0x3d, 
	0x8d, 0xb4, 0x35, 0xbe, 0x80, 0xc0, 0xb4, 0xbd, 0xf2, 0xe8, 0x1b, 0x3e, 
	0x9d, 0x73, 0x96, 0x3e, 0x80, 0x9d, 0x71, 0x3c, 0xde, 0xac, 0x5c, 0x3e, 
	0xa8, 0xf1, 0xf5, 0x3d, 0x98, 0x71, 0x0f, 0xbe, 0x28, 0xb5, 0x17, 0xbe, 
	0x21, 0x89, 0x1b, 0xbe, 0x20, 0x8a, 0xeb, 0xbc, 0x12, 0x22, 0x8d, 0xbe, 
	0xdb, 0xf3, 0x5f, 0xbe, 0xb6, 0x6a, 0x78, 0x3e, 0xd0, 0x42, 0x68, 0xbd, 
	0x45, 0x1a, 0x9b, 0x3e, 0x00, 0x80, 0x20, 0x3b, 0x48, 0x50, 0x24, 0xbe, 
	0x9f, 0x33, 0x24, 0xbe, 0xce, 0xd5, 0x20, 0x3e, 0xa8, 0x81, 0x50, 0xbd, 
	0x74, 0x05, 0x27, 0xbe, 0x00, 0x4a, 0x86, 0xbe, 0xea, 0x22, 0x74, 0x3e, 
	0x80, 0xff, 0xc8, 0xbc, 0xd2, 0x7f, 0x80, 0xbe, 0x5a, 0x85, 0x11, 0x3e, 
	0x50, 0x34, 0x27, 0xbe, 0x48, 0x2e, 0x80, 0x3d, 0x0b, 0xaa, 0x19, 0xbe, 
	0x75, 0x43, 0x9b, 0xbe, 0xe3, 0x03, 0x98, 0x3e, 0x3d, 0x14, 0x21, 0xbe, 
	0x5a, 0x40, 0x67, 0x3e, 0x4e, 0x9e, 0x6a, 0xbe, 0xe7, 0x39, 0x9e, 0xbe, 
	0xd8, 0x65, 0xad, 0xbd, 0x08, 0x3d, 0x18, 0xbd, 0xac, 0x0f, 0xa4, 0xbd, 
	0xb9, 0xf7, 0x31, 0xbe, 0x43, 0x65, 0x8c, 0xbe, 0x07, 0x5c, 0x05, 0xbe, 
	0x80, 0x41, 0x68, 0x3c, 0xbe, 0xa9, 0x52, 0xbe, 0x2b, 0xb4, 0x95, 0xbe, 
	0xa0, 0x7e, 0x5d, 0xbe, 0x54, 0x00, 0xf6, 0xbd, 0x60, 0xfc, 0x9f, 0xbc, 
	0x2a, 0x6e, 0x78, 0x3e, 0xf6, 0x20, 0x98, 0xbe, 0xf0, 0x3d, 0x42, 0x3d, 
	0x1e, 0xd6, 0x19, 0xbe, 0x24, 0xea, 0xd3, 0xbd, 0x56, 0xd6, 0x47, 0x3e, 
	0xd4, 0x90, 0xa3, 0xbd, 0x6c, 0xff, 0xac, 0x3d, 0x4e, 0x5f, 0x25, 0x3e, 
	0x32, 0x76, 0x1c, 0x3e, 0x40, 0xb1, 0xff, 0xbc, 0xf0, 0x93, 0x3e, 0x3d, 
	0xca, 0x8a, 0x25, 0xbe, 0xb4, 0x47, 0xc2, 0x3d, 0xa4, 0x93, 0x8c, 0xbe, 
	0x50, 0x5e, 0xbf, 0xbc, 0xd0, 0x55, 0xca, 0xbc, 0x50, 0x8a, 0x4d, 0x3d, 
	0xaa, 0x5a, 0x05, 0xbe, 0x40, 0xb8, 0x40, 0x3c, 0xa6, 0x3a, 0x76, 0xbe, 
	0x24, 0x1c, 0xd7, 0x3d, 0x00, 0xee, 0x30, 0xbb, 0x2e, 0x0a, 0x45, 0xbe, 
	0x6c, 0x3d, 0x47, 0xbe, 0x00, 0x74, 0x04, 0xbd, 0xa6, 0x3b, 0x7e, 0x3e, 
	0x81, 0x61, 0x9c, 0x3e, 0x48, 0x94, 0x60, 0xbe, 0x08, 0x43, 0x3a, 0x3d, 
	0x80, 0xc4, 0xdd, 0x3c, 0x37, 0x1d, 0x01, 0xbe, 0x73, 0xb7, 0x84, 0x3e, 
	0xea, 0x62, 0x06, 0x3e, 0xe6, 0x6c, 0x27, 0x3e, 0x70, 0xe7, 0xf7, 0xbc, 
	0x6b, 0x56, 0x2f, 0xbe, 0xb2, 0x5b, 0x5c, 0xbe, 0x22, 0x2b, 0x3d, 0x3e, 
	0xb0, 0xc7, 0x9b, 0x3d, 0xdb, 0xb4, 0x89, 0x3e, 0x6c, 0x22, 0xd7, 0x3d, 
	0x27, 0x34, 0x82, 0x3e, 0x58, 0x98, 0xc5, 0x3d, 0xcc, 0x86, 0xb9, 0x3d, 
	0xa9, 0xb4, 0x57, 0xbe, 0xe0, 0x51, 0x61, 0xbc, 0x7a, 0x3f, 0x19, 0x3e, 
	0x2c, 0xd8, 0x8e, 0xbe, 0x80, 0x94, 0x31, 0x3d, 0x08, 0xc8, 0x78, 0x3d, 
	0x80, 0x40, 0x7c, 0x3c, 0xe2, 0x75, 0x6d, 0x3e, 0xf0, 0x7b, 0x18, 0xbd, 
	0x54, 0x15, 0x2b, 0xbe, 0x58, 0x5a, 0xd5, 0xbd, 0x2f, 0xb9, 0x84, 0x3e, 
	0xec, 0xc1, 0x2d, 0x3e, 0x7e, 0x41, 0xb7, 0xbd, 0xe0, 0x53, 0x59, 0x3c, 
	0x04, 0x93, 0x12, 0x3e, 0xcc, 0xcd, 0x36, 0x3e, 0xd8, 0xeb, 0xc7, 0xbd, 
	0x8a, 0x77, 0x4f, 0x3e, 0x5d, 0xd3, 0x5f, 0xbe, 0x98, 0x16, 0x25, 0xbe, 
	0x42, 0x24, 0xb0, 0xbd, 0xa8, 0xd7, 0xcc, 0x3d, 0x76, 0x69, 0x58, 0x3e, 
	0xbb, 0x09, 0x1f, 0xbe, 0x98, 0x34, 0xcc, 0x3d, 0x2a, 0xa1, 0x02, 0x3e, 
	0x50, 0x69, 0x53, 0xbe, 0x7c, 0x10, 0xe2, 0x3d, 0xc1, 0xd8, 0x95, 0x3e, 
	0x7a, 0x2d, 0xe1, 0xbd, 0x70, 0x28, 0x03, 0x3d, 0x04, 0xa4, 0xf3, 0x3d, 
	0xe6, 0xd9, 0x4e, 0x3e, 0xe0, 0xb6, 0x4d, 0xbe, 0xee, 0xe1, 0x8f, 0xbd, 
	0xf8, 0x5b, 0x03, 0xbd, 0x37, 0xdb, 0x9f, 0x3e, 0xec, 0x90, 0x2c, 0x3e, 
	0x89, 0x41, 0x9a, 0x3e, 0xf4, 0xe3, 0xa3, 0xbd, 0xce, 0x35, 0x53, 0x3e, 
	0x20, 0x53, 0x47, 0xbc, 0x9a, 0x89, 0x90, 0xbe, 0xa5, 0xb9, 0x14, 0xbe, 
	0xd1, 0x8a, 0x03, 0xbe, 0xbc, 0x28, 0x95, 0x3d, 0x4e, 0xf8, 0x6d, 0x3e, 
	0xda, 0x62, 0x13, 0x3e, 0x94, 0xed, 0x85, 0xbd, 0x4d, 0x36, 0x3c, 0xbe, 
	0x21, 0x6b, 0x8f, 0x3e, 0x60, 0x39, 0xed, 0x3d, 0x80, 0xda, 0x27, 0xbb, 
	0xea, 0x80, 0xd0, 0xbd, 0x90, 0x3a, 0xd7, 0xbc, 0xb0, 0xb4, 0x9e, 0xbe, 
	0x93, 0x12, 0x8f, 0x3e, 0x2a, 0xe3, 0x47, 0x3e, 0x84, 0x7c, 0x0e, 0xbe, 
	0xcd, 0xee, 0x8c, 0x3e, 0x48, 0xd2, 0x59, 0xbe, 0xbc, 0x5f, 0x37, 0xbe, 
	0x2c, 0x84, 0x1f, 0xbe, 0x9f, 0xdb, 0x3e, 0xbe, 0x6f, 0x17, 0x95, 0x3e, 
	0x20, 0xcd, 0xb4, 0xbc, 0xeb, 0x37, 0x9e, 0x3e, 0xe6, 0x8d, 0xac, 0xbd, 
	0x90, 0xea, 0xff, 0x3d, 0x80, 0x07, 0x2e, 0x3b, 0xa1, 0x3a, 0x9f, 0x3e, 
	0x8f, 0x7a, 0x98, 0x3e, 0x5e, 0x86, 0x7d, 0x3e, 0x97, 0xbb, 0x39, 0xbe, 
	0xc6, 0x3f, 0x86, 0xbe, 0x62, 0x11, 0x6d, 0xbe, 0x80, 0xb1, 0x61, 0xbd, 
	0x7c, 0x37, 0x3c, 0xbe, 0xae, 0x5f, 0x59, 0x3e, 0x06, 0x2c, 0x46, 0xbe, 
	0x39, 0x1b, 0x85, 0x3e, 0x47, 0x91, 0x84, 0x3e, 0x6a, 0xf0, 0x6f, 0xbe, 
	0x00, 0x56, 0xda, 0x3a, 0x20, 0x03, 0x65, 0x3d, 0x5e, 0x29, 0x7e, 0xbe, 
	0x60, 0x08, 0x2c, 0xbc, 0x1c, 0xdd, 0x02, 0x3e, 0x74, 0xb9, 0x1e, 0x3e, 
	0x38, 0x11, 0x2f, 0x3e, 0x26, 0x14, 0x9c, 0xbe, 0x50, 0x3c, 0x7a, 0xbe, 
	0x34, 0x9d, 0xa8, 0x3d, 0x40, 0x41, 0xcf, 0x3b, 0x88, 0x57, 0x5c, 0xbd, 
	0x5f, 0x11, 0x9f, 0x3e, 0x03, 0x9a, 0x81, 0x3e, 0xc8, 0x18, 0x72, 0x3d, 
	0x38, 0x8a, 0x02, 0x3e, 0xbd, 0xa1, 0x85, 0x3e, 0x20, 0xf6, 0x9c, 0xbe, 
	0xe0, 0x8a, 0x1e, 0x3d, 0xb2, 0x2b, 0x7b, 0x3e, 0x87, 0xce, 0x33, 0xbe, 
	0x40, 0x7d, 0x31, 0xbd, 0x98, 0x6b, 0xda, 0xbd, 0xec, 0x30, 0x25, 0xbe, 
	0x58, 0x4d, 0x45, 0xbe, 0x40, 0x71, 0x4a, 0x3c, 0xca, 0x7a, 0x8e, 0xbe, 
	0x62, 0x89, 0x1e, 0x3e, 0x79, 0x36, 0x65, 0xbe, 0x93, 0x82, 0x83, 0x3e, 
	0xbc, 0x2c, 0xe6, 0xbd, 0x8e, 0xe7, 0x54, 0x3e, 0x8c, 0x35, 0xe9, 0xbd, 
	0x38, 0xcb, 0xa2, 0x3d, 0x1a, 0xdb, 0x00, 0x3e, 0x28, 0x83, 0x87, 0xbe, 
	0x89, 0x9f, 0xa1, 0xbe, 0x60, 0xd7, 0x9b, 0xbe, 0x9e, 0x3c, 0x40, 0x3e, 
	0x7e, 0x50, 0x7b, 0x3e, 0x80, 0x98, 0x6d, 0x3d, 0xfe, 0x21, 0xf4, 0xbd, 
	0xb8, 0x27, 0xc6, 0xbd, 0x35, 0xbc, 0x81, 0xbe, 0x8f, 0x82, 0x90, 0xbe, 
	0xd8, 0x36, 0xc4, 0xbd, 0x40, 0x01, 0x29, 0xbd, 0x06, 0x9f, 0x3f, 0x3e, 
	0xee, 0xcc, 0x68, 0x3e, 0x36, 0x6b, 0xd9, 0xbd, 0x7d, 0xbb, 0x8f, 0x3e, 
	0xe0, 0x3c, 0x69, 0x3c, 0xf1, 0x75, 0x12, 0xbe, 0xe4, 0xee, 0xde, 0xbd, 
	0xf5, 0xf7, 0x95, 0x3e, 0x41, 0x8a, 0x38, 0xbe, 0xd0, 0x43, 0x3a, 0x3d, 
	0x52, 0x25, 0x5c, 0xbe, 0x4a, 0xe9, 0x40, 0x3e, 0x58, 0x95, 0xc2, 0xbd, 
	0x67, 0xd6, 0x31, 0xbe, 0xb6, 0x83, 0x1b, 0x3e, 0xe2, 0x03, 0x69, 0xbe, 
	0x80, 0x06, 0xea, 0x3b, 0x2b, 0xde, 0x87, 0x3e, 0xe6, 0x82, 0xfb, 0xbd, 
	0x20, 0xf3, 0x3e, 0x3c, 0x20, 0x0e, 0x74, 0xbe, 0x52, 0x94, 0x96, 0xbd, 
	0x30, 0xd8, 0xaa, 0x3c, 0xfa, 0x91, 0x8a, 0xbe, 0x50, 0xaf, 0x35, 0x3e, 
	0x4e, 0x7d, 0x51, 0x3e, 0x00, 0x03, 0xc5, 0x3a, 0x8c, 0xf1, 0x49, 0xbe, 
	0xa0, 0xc5, 0xbb, 0x3c, 0x52, 0x2f, 0x75, 0xbe, 0x46, 0xcf, 0x2b, 0x3e, 
	0x61, 0xfc, 0x89, 0x3e, 0x07, 0x5f, 0x84, 0x3e, 0xe0, 0x81, 0x30, 0xbd, 
	0x6c, 0xd0, 0x0f, 0xbe, 0xe0, 0x0d, 0x01, 0x3c, 0x3c, 0xab, 0x64, 0xbe, 
	0x27, 0x8d, 0x54, 0xbe, 0x78, 0xb5, 0x48, 0x3d, 0x85, 0x51, 0x97, 0x3e, 
	0xc2, 0xda, 0xd3, 0xbd, 0xd2, 0xd5, 0x56, 0xbe, 0xe0, 0x24, 0x95, 0x3c, 
	0x0d, 0x08, 0x08, 0xbe, 0x72, 0xfd, 0x56, 0x3e, 0x13, 0x8b, 0x30, 0xbe, 
	0x58, 0x4c, 0xa7, 0x3d, 0xe8, 0x9c, 0x3b, 0x3d, 0xe0, 0x8d, 0xfc, 0x3c, 
	0x34, 0xc0, 0xc7, 0xbd, 0x00, 0x40, 0x77, 0xbb, 0x93, 0x71, 0x9f, 0x3e, 
	0x4c, 0xc0, 0xe3, 0xbd, 0x64, 0x64, 0x9f, 0xbe, 0x60, 0x3a, 0x8f, 0x3d, 
	0xd0, 0xa4, 0xde, 0xbd, 0xe0, 0x15, 0xf2, 0x3d, 0x88, 0x20, 0x14, 0x3e, 
	0xaf, 0xbb, 0x96, 0x3e, 0x40, 0xa6, 0x68, 0xbd, 0xf9, 0x05, 0x95, 0x3e, 
	0x19, 0x32, 0x83, 0x3e, 0xce, 0xe5, 0x4c, 0x3e, 0xfc, 0x7b, 0x5f, 0xbe, 
	0x24, 0x5d, 0x6a, 0xbe, 0xe2, 0x0d, 0x52, 0x3e, 0xb3, 0xe8, 0x98, 0xbe, 
	0x30, 0x98, 0xca, 0x3c, 0xa5, 0x12, 0x9c, 0x3e, 0xa6, 0x0f, 0x9a, 0xbe, 
	0xac, 0x53, 0x9d, 0x3d, 0x53, 0x8d, 0x8f, 0x3e, 0x88, 0x86, 0x0d, 0x3d, 
	0x0a, 0xc9, 0x74, 0xbe, 0x20, 0x8a, 0xb0, 0xbd, 0x5e, 0x83, 0x9d, 0xbe, 
	0xa2, 0x83, 0xa5, 0xbd, 0x40, 0x08, 0xe9, 0x3b, 0x60, 0xeb, 0xcf, 0xbd, 
	0x88, 0x7d, 0x29, 0xbd, 0x66, 0xa4, 0x68, 0x3e, 0x70, 0x96, 0xd5, 0x3c, 
	0x28, 0xf3, 0xc4, 0x3d, 0x27, 0x15, 0x9b, 0x3e, 0x83, 0x8e, 0x89, 0xbe, 
	0xcf, 0xd2, 0x86, 0x3e, 0x1d, 0x11, 0x95, 0x3e, 0x68, 0x6b, 0x08, 0x3d, 
	0x93, 0xb3, 0x87, 0x3e, 0x7c, 0x41, 0xc9, 0xbd, 0x8f, 0xbc, 0x82, 0xbe, 
	0xd0, 0x84, 0xd1, 0xbd, 0xd6, 0x3d, 0x3d, 0xbe, 0xc2, 0xb9, 0x96, 0xbe, 
	0xfa, 0x26, 0x48, 0xbe, 0x84, 0x65, 0x45, 0xbe, 0xa3, 0xa8, 0x8f, 0xbe, 
	0x4b, 0x60, 0x4b, 0xbe, 0xc0, 0xf0, 0xe0, 0xbc, 0xb6, 0xc2, 0x3a, 0xbe, 
	0xa0, 0x83, 0x3f, 0xbd, 0x59, 0x60, 0x88, 0x3e, 0x6c, 0x51, 0x23, 0x3e, 
	0x62, 0xfe, 0x5e, 0xbe, 0x21, 0x47, 0x41, 0xbe, 0x60, 0x0a, 0x1c, 0xbd, 
	0x00, 0xfa, 0x62, 0xbe, 0xf0, 0xdc, 0x1e, 0x3d, 0xb5, 0x9a, 0x99, 0x3e, 
	0x3d, 0x92, 0x96, 0x3e, 0x20, 0xc2, 0x51, 0xbe, 0x48, 0xde, 0x25, 0x3d, 
	0x5c, 0xfa, 0x87, 0x3d, 0xab, 0xa2, 0x9c, 0x3e, 0x07, 0x2f, 0x80, 0x3e, 
	0x80, 0x39, 0x77, 0x3c, 0xb2, 0x4a, 0x2f, 0xbe, 0x78, 0x1e, 0x03, 0xbd, 
	0xd0, 0x91, 0xb1, 0x3d, 0x24, 0xf3, 0xf1, 0x3d, 0xe8, 0x0c, 0x10, 0x3d, 
	0x53, 0xd0, 0x9c, 0xbe, 0x6b, 0xb1, 0x30, 0xbe, 0x3d, 0xf0, 0x25, 0xbe, 
	0xc0, 0x95, 0x14, 0xbc, 0xf4, 0xec, 0x84, 0xbd, 0x24, 0xa3, 0x59, 0xbe, 
	0x5d, 0xb8, 0x99, 0x3e, 0xf2, 0x55, 0x3c, 0x3e, 0x29, 0x49, 0x40, 0xbe, 
	0x40, 0x4a, 0xc7, 0x3b, 0x96, 0x00, 0x77, 0x3e, 0xc8, 0xd1, 0x2f, 0x3e, 
	0x6c, 0xcd, 0xfd, 0xbd, 0xa8, 0x3e, 0x94, 0x3d, 0xac, 0x5a, 0xdd, 0x3d, 
	0x90, 0x2c, 0x52, 0x3d, 0x70, 0x0f, 0x72, 0xbd, 0x98, 0xa4, 0x33, 0x3d, 
	0x62, 0x54, 0xb2, 0xbd, 0xbc, 0x8d, 0xc4, 0x3d, 0x20, 0xa1, 0x9d, 0xbe, 
	0x3a, 0xa2, 0x61, 0x3e, 0x4e, 0x33, 0x30, 0x3e, 0xa2, 0xf7, 0x95, 0xbe, 
	0x00, 0x6d, 0xee, 0xba, 0x00, 0xe5, 0xa4, 0x3a, 0x4f, 0x55, 0x12, 0xbe, 
	0xec, 0xdc, 0x07, 0xbe, 0x26, 0x06, 0x4a, 0x3e, 0x08, 0x3d, 0x6f, 0x3d, 
	0x85, 0x2c, 0x8c, 0xbe, 0x2d, 0xb2, 0x9e, 0x3e, 0x3f, 0x83, 0x8e, 0x3e, 
	0x60, 0x43, 0x71, 0xbe, 0xe8, 0xbf, 0x17, 0x3e, 0xe7, 0x22, 0x85, 0x3e, 
	0xb2, 0xea, 0x95, 0xbe, 0xe0, 0xd1, 0x4e, 0xbe, 0xd0, 0x07, 0xcc, 0x3c, 
	0x24, 0x80, 0x36, 0x3e, 0xe0, 0x32, 0x22, 0x3c, 0x59, 0xec, 0x84, 0x3e, 
	0xec, 0x4d, 0xca, 0x3d, 0x42, 0x13, 0x66, 0xbe, 0x3f, 0xf2, 0x0a, 0xbe, 
	0x9c, 0xcb, 0x92, 0xbe, 0x1f, 0xb2, 0xa0, 0xbe, 0xf3, 0x72, 0x3b, 0xbe, 
	0x18, 0x87, 0x22, 0x3e, 0x4a, 0x2c, 0x70, 0x3e, 0x8c, 0xf5, 0x14, 0x3e, 
	0x52, 0x86, 0x69, 0x3e, 0x5a, 0xe8, 0x32, 0x3e, 0x44, 0x9e, 0xf7, 0xbd, 
	0x47, 0xf1, 0x98, 0x3e, 0x28, 0x5a, 0xc0, 0x3d, 0xff, 0x42, 0x3a, 0xbe, 
	0xfd, 0xbf, 0x8f, 0x3e, 0x40, 0x20, 0xc5, 0xbb, 0x40, 0x5d, 0x8d, 0x3c, 
	0xd9, 0xcc, 0x97, 0x3e, 0x18, 0xc0, 0x69, 0x3d, 0xe8, 0xca, 0x77, 0xbd, 
	0xe6, 0x04, 0x74, 0xbe, 0xf8, 0xa8, 0xa7, 0x3d, 0x05, 0x9e, 0x7c, 0xbe, 
	0x9c, 0xbe, 0xc2, 0x3d, 0xc8, 0xce, 0xa5, 0x3d, 0xe5, 0xa0, 0x00, 0xbe, 
	0xd2, 0x7e, 0x37, 0x3e, 0xf2, 0xba, 0x33, 0x3e, 0xb8, 0xac, 0x5e, 0x3d, 
	0x42, 0xf2, 0x95, 0xbe, 0xa6, 0x4d, 0x50, 0xbe, 0xa8, 0x33, 0x71, 0x3d, 
	0xe4, 0x09, 0x91, 0xbe, 0xe7, 0xc7, 0x8d, 0x3e, 0x29, 0x21, 0x98, 0x3e, 
	0x46, 0x2f, 0xce, 0xbd, 0xe8, 0x42, 0xcf, 0xbd, 0x7a, 0x4f, 0xd5, 0xbd, 
	0x00, 0x81, 0x18, 0x3d, 0xdc, 0x33, 0x57, 0xbe, 0xda, 0xc9, 0x17, 0xbe, 
	0xda, 0x2c, 0x25, 0x3e, 0x87, 0x10, 0x7f, 0xbe, 0x30, 0x3a, 0x94, 0xbd, 
	0x94, 0x83, 0x32, 0xbe, 0x82, 0x22, 0x55, 0x3e, 0x52, 0x4e, 0x64, 0xbe, 
	0x20, 0x0c, 0x33, 0x3e, 0x58, 0xe4, 0x66, 0xbe, 0x7a, 0x44, 0x6b, 0x3e, 
	0xa6, 0x6d, 0x61, 0xbe, 0xe2, 0x53, 0x8b, 0xbd, 0x9e, 0xd4, 0x3f, 0x3e, 
	0x12, 0x1d, 0x6d, 0x3e, 0xf0, 0x76, 0x10, 0xbe, 0xd0, 0x90, 0xe0, 0x3c, 
	0x2c, 0x30, 0x84, 0xbd, 0x68, 0x41, 0x3c, 0xbe, 0x3b, 0xef, 0x15, 0xbe, 
	0xce, 0x6a, 0x27, 0x3e, 0x74, 0x41, 0x74, 0xbe, 0xb2, 0xf5, 0x5d, 0x3e, 
	0x32, 0x15, 0x55, 0x3e, 0x36, 0xc9, 0x43, 0xbe, 0x2a, 0xde, 0x4e, 0x3e, 
	0x38, 0xbb, 0x61, 0xbd, 0xe7, 0xdb, 0x05, 0xbe, 0x24, 0x92, 0xa2, 0xbd, 
	0xfe, 0xd2, 0xa6, 0xbd, 0xbd, 0xaf, 0x93, 0xbe, 0x3c, 0x47, 0xdc, 0xbd, 
	0xe6, 0x2c, 0x43, 0x3e, 0x3a, 0x80, 0x7a, 0x3e, 0xb8, 0x7b, 0x28, 0xbd, 
	0x50, 0xf8, 0xd7, 0xbd, 0x95, 0xff, 0x0c, 0xbe, 0xe0, 0x32, 0x86, 0xbe, 
	0x38, 0x69, 0xe6, 0x3d, 0x8b, 0xc4, 0x1f, 0xbe, 0xe2, 0x77, 0x67, 0xbe, 
	0x2d, 0xe1, 0x8f, 0x3e, 0xe4, 0xcc, 0x00, 0x3e, 0xb0, 0x7e, 0xd0, 0xbc, 
	0x68, 0xb3, 0x3e, 0x3d, 0x6b, 0x78, 0x90, 0x3e, 0x0e, 0x6f, 0xbb, 0xbd, 
	0xe7, 0x53, 0x9b, 0x3e, 0x00, 0x99, 0x49, 0x3c, 0xa1, 0x8b, 0x0d, 0xbe, 
	0x2e, 0x9c, 0xeb, 0xbd, 0x7c, 0x83, 0xb6, 0x3d, 0xca, 0x5e, 0xab, 0xbd, 
	0x6e, 0xcf, 0x1e, 0x3e, 0xae, 0x71, 0xfa, 0xbd, 0x30, 0xef, 0x77, 0x3d, 
	0x38, 0xb3, 0x10, 0x3e, 0xe0, 0x55, 0x87, 0xbd, 0x24, 0x59, 0x35, 0x3e, 
	0x66, 0x53, 0xd4, 0xbd, 0xb0, 0xbf, 0xd6, 0x3d, 0xd3, 0x5e, 0x2d, 0xbe, 
	0xa6, 0xd8, 0x93, 0xbe, 0x8c, 0xe0, 0x3b, 0x3e, 0x60, 0xc4, 0xa4, 0x3c, 
	0x10, 0xda, 0x9e, 0x3d, 0x6a, 0xf8, 0x74, 0x3e, 0xc9, 0xbc, 0x94, 0x3e, 
	0xe9, 0xcb, 0x98, 0x3e, 0xc6, 0xf5, 0xff, 0xff, 0x04, 0x00, 0x00, 0x00, 
	0x70, 0x08, 0x00, 0x00, 0xa4, 0x3a, 0x90, 0xbe, 0x3e, 0x44, 0x7c, 0x3e, 
	0x80, 0x35, 0xe4, 0x3c, 0x35, 0x49, 0x99, 0x3e, 0x2a, 0x3b, 0x4d, 0x3e, 
	0xda, 0x8d, 0x76, 0x3e, 0x26, 0x4b, 0x6b, 0x3e, 0xda, 0x4f, 0x24, 0x3e, 
	0xb0, 0x29, 0x8e, 0xbd, 0xb4, 0x54, 0xf3, 0xbd, 0x30, 0x0e, 0x8d, 0x3c, 
	0xce, 0x74, 0x4a, 0x3e, 0xd7, 0x72, 0x67, 0xbe, 0xf5, 0xc0, 0x94, 0x3e, 
	0x8c, 0x19, 0x1f, 0xbe, 0x2b, 0xbe, 0x88, 0x3e, 0xc2, 0x82, 0x1d, 0x3e, 
	0x5d, 0xf1, 0x2d, 0xbe, 0x48, 0x3d, 0x1d, 0x3d, 0xa0, 0x6a, 0x82, 0x3d, 
	0x4a, 0x7a, 0x8a, 0xbe, 0xc0, 0x7f, 0x8a, 0x3c, 0xde, 0xfe, 0x63, 0x3e, 
	0x46, 0xe9, 0x31, 0x3e, 0x60, 0x3c, 0x61, 0xbc, 0xcf, 0x65, 0xa5, 0xbe, 
	0x00, 0xc4, 0x87, 0xbe, 0xe0, 0x4a, 0xcc, 0x3c, 0x3c, 0x54, 0xf1, 0x3d, 
	0xcb, 0x00, 0x0b, 0xbe, 0xb9, 0x8e, 0xad, 0xbe, 0x70, 0x15, 0x98, 0xbd, 
	0x70, 0x9b, 0xc6, 0x3c, 0x5c, 0x11, 0x9a, 0xbd, 0x10, 0x1e, 0xd4, 0x3c, 
	0x80, 0xdd, 0xd2, 0xbd, 0xc9, 0xc7, 0xb4, 0x3e, 0x18, 0xf6, 0x84, 0xbd, 
	0x20, 0xa1, 0xf8, 0xbc, 0x1d, 0xec, 0x16, 0xbe, 0x63, 0x3d, 0x39, 0xbe, 
	0xe1, 0x68, 0x77, 0xbe, 0xa8, 0xbc, 0x9d, 0x3d, 0x00, 0xb9, 0xe7, 0xbd, 
	0xa8, 0x0a, 0x96, 0xbd, 0xf0, 0x36, 0x40, 0x3d, 0xf7, 0x61, 0x8f, 0x3e, 
	0x5c, 0xe2, 0x98, 0xbd, 0xa3, 0xfe, 0x91, 0xbe, 0x08, 0x37, 0xcb, 0x3d, 
	0x6f, 0x3a, 0x98, 0x3e, 0x56, 0x09, 0x8b, 0xbe, 0x9a, 0xd3, 0x8d, 0xbe, 
	0x03, 0xec, 0x97, 0x3e, 0xd7, 0x5d, 0x8a, 0xbe, 0xe4, 0xaf, 0xca, 0x3d, 
	0x46, 0x14, 0x51, 0x3e, 0x40, 0x94, 0x91, 0xbc, 0x58, 0x92, 0x2c, 0x3d, 
	0x0c, 0xf3, 0xb9, 0x3d, 0x8e, 0x05, 0x72, 0x3e, 0x36, 0xe3, 0x1d, 0x3e, 
	0x60, 0x36, 0x51, 0x3d, 0x94, 0xad, 0x80, 0x3d, 0x45, 0xe3, 0xa4, 0xbe, 
	0x18, 0x2e, 0xb2, 0xbd, 0xa5, 0xca, 0xb0, 0xbe, 0xa3, 0xa6, 0xb2, 0x3e, 
	0x70, 0x19, 0xd6, 0x3d, 0x8d, 0x4c, 0x1f, 0xbe, 0xa0, 0xcf, 0x4b, 0xbc, 
	0x58, 0xc1, 0xf1, 0xbd, 0x00, 0x44, 0xbe, 0xba, 0xb4, 0xc2, 0x92, 0xbe, 
	0xd9, 0x67, 0x50, 0xbe, 0x54, 0xb3, 0x85, 0xbe, 0x70, 0x4c, 0x86, 0xbc, 
	0xc4, 0x1a, 0x9f, 0xbe, 0x79, 0xf4, 0xb0, 0x3e, 0xe8, 0xe4, 0x05, 0x3d, 
	0x79, 0xde, 0x42, 0xbe, 0xe0, 0x45, 0x8b, 0xbd, 0xff, 0xdf, 0x83, 0x3e, 
	0x70, 0xe4, 0xb3, 0xbe, 0xf1, 0x85, 0xa0, 0xbe, 0x18, 0x6c, 0x90, 0x3d, 
	0xc7, 0xeb, 0x8f, 0x3e, 0x94, 0x6c, 0x9f, 0xbe, 0x55, 0x8f, 0x8f, 0xbe, 
	0x38, 0xdb, 0xb6, 0xbd, 0x9d, 0x81, 0x3f, 0xbe, 0x17, 0xef, 0x89, 0xbe, 
	0x0a, 0xd0, 0x2d, 0x3e, 0xbd, 0x61, 0x82, 0x3e, 0x12, 0x19, 0x75, 0x3e, 
	0xc8, 0x8c, 0xac, 0xbe, 0x00, 0x74, 0xa6, 0x3c, 0x47, 0x9b, 0x4a, 0xbe, 
	0x1a, 0x54, 0x0f, 0x3e, 0x61, 0x98, 0xaf, 0xbe, 0x24, 0x24, 0x54, 0xbe, 
	0x70, 0xa4, 0x41, 0xbd, 0x86, 0x09, 0x7c, 0xbe, 0x00, 0x01, 0xde, 0xbb, 
	0x6a, 0x7b, 0xeb, 0xbd, 0x0a, 0xc9, 0x47, 0x3e, 0x42, 0x9c, 0x5d, 0x3e, 
	0x00, 0xc0, 0xa7, 0x3a, 0xe0, 0xdb, 0xb6, 0x3d, 0x34, 0xde, 0x94, 0xbe, 
	0xa7, 0x67, 0xa7, 0xbe, 0x01, 0x63, 0x87, 0xbe, 0x80, 0xe3, 0x4f, 0x3d, 
	0x88, 0xe4, 0x80, 0xbe, 0x80, 0x4b, 0x16, 0xbc, 0xc4, 0xcb, 0x7b, 0xbe, 
	0x4e, 0x6e, 0x69, 0x3e, 0x60, 0x75, 0x0b, 0x3e, 0x06, 0x95, 0x0b, 0x3e, 
	0x67, 0x93, 0xb2, 0xbe, 0x58, 0x40, 0x55, 0x3d, 0x72, 0x37, 0x17, 0xbe, 
	0x08, 0x94, 0x7d, 0xbd, 0x1f, 0x0d, 0xa9, 0xbe, 0xb0, 0x4b, 0x2d, 0xbd, 
	0xb0, 0x00, 0xfd, 0xbc, 0x1c, 0xf3, 0x94, 0xbe, 0x26, 0x2d, 0x74, 0x3e, 
	0x4e, 0x87, 0xf3, 0xbd, 0x4a, 0xfa, 0x71, 0xbe, 0xb9, 0xee, 0xab, 0xbe, 
	0xc0, 0x0e, 0x80, 0x3d, 0x26, 0x86, 0x57, 0xbe, 0x60, 0x0e, 0x20, 0x3d, 
	0x7c, 0x6f, 0x8f, 0xbd, 0x13, 0x09, 0xa8, 0x3e, 0x10, 0x65, 0xa3, 0x3c, 
	0xd4, 0x58, 0xa0, 0xbd, 0x26, 0xd5, 0x4b, 0x3e, 0x75, 0x67, 0xa0, 0xbe, 
	0x2c, 0xbe, 0x23, 0xbe, 0xed, 0x22, 0x8f, 0xbe, 0x57, 0xd5, 0x88, 0x3e, 
	0xe0, 0x18, 0x06, 0xbd, 0x5d, 0xc3, 0xa1, 0x3e, 0x43, 0xb7, 0x84, 0x3e, 
	0xd8, 0x81, 0x8f, 0xbe, 0xd9, 0x67, 0x00, 0xbe, 0x44, 0x1f, 0xcb, 0x3d, 
	0x7b, 0x5f, 0x93, 0x3e, 0xc0, 0x15, 0xfc, 0x3d, 0xe8, 0x78, 0xcf, 0xbd, 
	0x32, 0x08, 0x9c, 0xbe, 0x4c, 0xc0, 0xf2, 0xbd, 0x68, 0x89, 0x19, 0xbd, 
	0xd7, 0x04, 0xb5, 0xbe, 0xde, 0x7a, 0x01, 0xbe, 0x7c, 0xa6, 0x9e, 0x3d, 
	0xa4, 0xdd, 0x86, 0x3d, 0xdb, 0x27, 0x32, 0xbe, 0xaa, 0xf5, 0x4c, 0xbe, 
	0x63, 0xbb, 0x95, 0x3e, 0x22, 0xe5, 0x3f, 0x3e, 0x10, 0xc3, 0xc6, 0x3c, 
	0x00, 0xfe, 0x00, 0x3e, 0x2e, 0x16, 0x94, 0xbe, 0x50, 0x93, 0x26, 0xbd, 
	0x88, 0x0c, 0xf5, 0x3d, 0xc2, 0x74, 0x71, 0x3e, 0x07, 0x31, 0x92, 0x3e, 
	0x42, 0x26, 0x69, 0x3e, 0xad, 0xb1, 0xa3, 0x3e, 0x92, 0x58, 0x9f, 0xbe, 
	0x15, 0x3c, 0x80, 0x3e, 0x23, 0x4d, 0xa7, 0xbe, 0x66, 0xb8, 0x1f, 0x3e, 
	0xfc, 0xd6, 0xcb, 0x3d, 0xea, 0x7b, 0x32, 0xbe, 0xc5, 0xf7, 0xaf, 0x3e, 
	0x38, 0x17, 0x66, 0x3d, 0xec, 0xe2, 0x8a, 0x3d, 0x5c, 0xc4, 0xbb, 0xbd, 
	0x9c, 0x29, 0x74, 0xbe, 0x4f, 0x32, 0x99, 0xbe, 0x37, 0x40, 0x95, 0xbe, 
	0x22, 0x28, 0x77, 0xbe, 0x6b, 0x81, 0xa7, 0x3e, 0x5e, 0x82, 0x65, 0x3e, 
	0x30, 0x0b, 0x06, 0xbd, 0xe4, 0x88, 0x89, 0xbe, 0x48, 0x32, 0xe1, 0xbd, 
	0x96, 0x4a, 0x1d, 0x3e, 0xdb, 0x67, 0xb3, 0x3e, 0x62, 0xc9, 0x1a, 0x3e, 
	0x88, 0x7b, 0x23, 0xbd, 0x8c, 0x13, 0x0c, 0x3e, 0x5b, 0x1e, 0x88, 0x3e, 
	0x1a, 0x57, 0x63, 0x3e, 0xa0, 0x7d, 0x72, 0xbc, 0xe3, 0xba, 0x22, 0xbe, 
	0xec, 0x9a, 0xfd, 0x3d, 0x0d, 0xc7, 0xa2, 0x3e, 0xa9, 0xd3, 0xaa, 0x3e, 
	0x60, 0x9b, 0x35, 0x3d, 0x20, 0xf1, 0x32, 0xbd, 0x1a, 0x8d, 0x25, 0x3e, 
	0x9e, 0x54, 0x76, 0x3e, 0x28, 0x19, 0x40, 0xbd, 0x9a, 0x3c, 0x1f, 0x3e, 
	0x40, 0x6d, 0x8f, 0xbc, 0x92, 0x25, 0x4a, 0x3e, 0x80, 0xe7, 0x60, 0xbc, 
	0x5e, 0xb6, 0x1c, 0xbe, 0xae, 0x52, 0x69, 0x3e, 0xf0, 0xca, 0x80, 0xbd, 
	0xce, 0xe9, 0x18, 0x3e, 0xb8, 0xec, 0xae, 0x3d, 0x00, 0x76, 0x47, 0xbc, 
	0x60, 0xf8, 0xea, 0x3d, 0xfa, 0x1d, 0x42, 0x3e, 0x3c, 0xa0, 0x0d, 0x3e, 
	0x90, 0x55, 0x42, 0xbd, 0x04, 0xf5, 0x06, 0xbe, 0xb5, 0x02, 0x8d, 0xbe, 
	0x51, 0xa1, 0x2f, 0xbe, 0x19, 0xc6, 0x91, 0x3e, 0x12, 0xf8, 0xb3, 0xbe, 
	0xf4, 0xf0, 0xbd, 0x3d, 0xa7, 0x8a, 0x8c, 0xbe, 0x85, 0xfe, 0xb0, 0xbe, 
	0x77, 0x3d, 0x84, 0x3e, 0x70, 0x9b, 0xe0, 0x3c, 0x96, 0x2a, 0x92, 0xbe, 
	0x80, 0x95, 0x3a, 0xbd, 0x7a, 0x5a, 0x50, 0xbe, 0x2b, 0xf0, 0x8c, 0x3e, 
	0x3d, 0x8a, 0x85, 0x3e, 0x5c, 0x01, 0x8a, 0xbd, 0xa1, 0xb7, 0x8c, 0x3e, 
	0x87, 0xb5, 0x13, 0xbe, 0xb6, 0x21, 0x7a, 0xbe, 0xfd, 0x0a, 0x96, 0xbe, 
	0xdd, 0x6e, 0x82, 0x3e, 0xd2, 0xc4, 0x3d, 0x3e, 0x1c, 0x36, 0x71, 0xbe, 
	0x1f, 0x35, 0xac, 0x3e, 0x68, 0x1a, 0x5c, 0x3d, 0xcd, 0xa9, 0xad, 0xbe, 
	0xf1, 0xe4, 0x93, 0x3e, 0xe8, 0xb1, 0x46, 0xbd, 0x61, 0xe8, 0x38, 0xbe, 
	0x6d, 0xf9, 0x96, 0x3e, 0x36, 0xd2, 0x39, 0xbe, 0xe1, 0x27, 0x8e, 0xbe, 
	0xa8, 0x8f, 0x28, 0xbe, 0x9a, 0xd6, 0x5c, 0xbe, 0x7d, 0x8d, 0x80, 0x3e, 
	0xf7, 0xd6, 0x8c, 0xbe, 0x40, 0x1b, 0x8e, 0xbe, 0x08, 0xcd, 0x1c, 0xbd, 
	0xf0, 0xdc, 0x83, 0xbc, 0x80, 0x46, 0x71, 0x3c, 0xe0, 0x8a, 0x9d, 0x3c, 
	0xfc, 0x9e, 0x84, 0xbd, 0x1b, 0xc7, 0xa8, 0x3e, 0x48, 0x2d, 0x84, 0xbe, 
	0x62, 0xb7, 0x35, 0x3e, 0x90, 0xd8, 0xea, 0xbd, 0xed, 0x1a, 0xb0, 0x3e, 
	0xc6, 0xeb, 0x46, 0x3e, 0xf7, 0x32, 0x8b, 0x3e, 0x51, 0xc6, 0x85, 0x3e, 
	0xca, 0xa1, 0x94, 0xbe, 0x24, 0x24, 0x92, 0xbd, 0xb0, 0x21, 0x0a, 0xbd, 
	0xcb, 0x04, 0xb3, 0x3e, 0x4e, 0x01, 0x38, 0x3e, 0x11, 0x88, 0xa7, 0x3e, 
	0xdd, 0xdb, 0x14, 0xbe, 0xe5, 0x8a, 0x80, 0x3e, 0xdc, 0x06, 0x76, 0xbe, 
	0x28, 0x04, 0x79, 0xbd, 0x74, 0xc1, 0xb6, 0x3d, 0x02, 0x5d, 0x6c, 0x3e, 
	0x86, 0x14, 0x03, 0xbe, 0xee, 0x7c, 0x65, 0x3e, 0x64, 0x9e, 0x8d, 0xbe, 
	0x83, 0xe2, 0x9b, 0x3e, 0x3d, 0xde, 0xb3, 0x3e, 0xa5, 0x10, 0x8c, 0x3e, 
	0xba, 0x90, 0x7e, 0xbe, 0xa8, 0x43, 0x98, 0x3d, 0xfe, 0x95, 0x43, 0x3e, 
	0x60, 0x74, 0xa4, 0xbe, 0x2c, 0x14, 0x91, 0xbd, 0xa9, 0xa6, 0x8a, 0xbe, 
	0x70, 0xf9, 0xda, 0xbd, 0x50, 0x0c, 0x9e, 0xbc, 0x90, 0x5e, 0x2f, 0xbd, 
	0x8b, 0xdf, 0x98, 0xbe, 0x50, 0x2a, 0xf0, 0x3d, 0xb8, 0xd9, 0x07, 0xbd, 
	0x78, 0x37, 0x7a, 0x3d, 0x6a, 0xe8, 0x03, 0xbe, 0x15, 0xcb, 0xa7, 0x3e, 
	0x55, 0xc7, 0xa9, 0x3e, 0xbc, 0x9c, 0xcb, 0x3d, 0x92, 0xf2, 0x8d, 0xbe, 
	0x9a, 0xa9, 0x73, 0x3e, 0x4d, 0x60, 0x87, 0x3e, 0xf7, 0xa4, 0x8d, 0x3e, 
	0x81, 0x2c, 0xaf, 0x3e, 0x1f, 0x9d, 0xaf, 0x3e, 0xf0, 0x61, 0x3e, 0xbd, 
	0x90, 0xff, 0x3e, 0xbd, 0x9d, 0x61, 0x48, 0xbe, 0xe8, 0xe6, 0x58, 0xbe, 
	0xfe, 0x61, 0x19, 0xbe, 0x4a, 0xad, 0x6b, 0xbe, 0x50, 0xc4, 0xae, 0xbe, 
	0xb2, 0xfa, 0x70, 0x3e, 0xe9, 0x45, 0x68, 0xbe, 0x39, 0x40, 0x16, 0xbe, 
	0xac, 0x58, 0x70, 0xbe, 0x00, 0x27, 0xb6, 0x3d, 0xc0, 0xf2, 0xe8, 0xbc, 
	0x20, 0x0b, 0xa5, 0x3d, 0x02, 0xe8, 0x65, 0x3e, 0x2e, 0x73, 0x75, 0x3e, 
	0xf1, 0x9d, 0x04, 0xbe, 0x3a, 0xab, 0x76, 0x3e, 0xd8, 0x5d, 0xab, 0xbe, 
	0xe9, 0xc5, 0xa7, 0x3e, 0xc8, 0xa2, 0x77, 0xbd, 0xe6, 0xce, 0xb4, 0xbe, 
	0x84, 0xce, 0x88, 0xbd, 0x5c, 0x81, 0x83, 0xbd, 0x18, 0xbd, 0x54, 0x3d, 
	0xfb, 0xd7, 0x8c, 0xbe, 0x85, 0xe0, 0x8b, 0x3e, 0x1c, 0x08, 0x8b, 0xbe, 
	0x8c, 0x2b, 0x87, 0xbd, 0xfc, 0xf0, 0xdc, 0x3d, 0xfb, 0x29, 0xb4, 0x3e, 
	0x76, 0x4f, 0x95, 0xbe, 0x28, 0x60, 0x1c, 0xbd, 0x38, 0xe9, 0x7a, 0xbd, 
	0x30, 0x10, 0xb8, 0xbd, 0x66, 0x67, 0x0a, 0x3e, 0xa6, 0xdd, 0x54, 0xbe, 
	0xd8, 0x51, 0x62, 0xbd, 0x30, 0xbc, 0xc0, 0xbd, 0xde, 0x7e, 0x27, 0x3e, 
	0x00, 0x65, 0x6e, 0x3b, 0x5c, 0x35, 0xbb, 0x3d, 0x11, 0x23, 0x8d, 0xbe, 
	0x00, 0x44, 0x20, 0xbd, 0x65, 0x76, 0x8b, 0x3e, 0x42, 0xb7, 0x7f, 0xbe, 
	0xe0, 0x6d, 0xa5, 0x3c, 0x33, 0x6b, 0xaf, 0x3e, 0x99, 0xcf, 0xaf, 0x3e, 
	0xdb, 0x87, 0x9f, 0x3e, 0x54, 0xe3, 0x83, 0xbd, 0x33, 0x3f, 0x82, 0x3e, 
	0xf0, 0x77, 0xe9, 0x3d, 0xc0, 0x45, 0x7e, 0xbe, 0x9f, 0xbf, 0xac, 0x3e, 
	0xfd, 0xd7, 0xb1, 0x3e, 0x92, 0xb7, 0x5a, 0x3e, 0x51, 0x53, 0x2f, 0xbe, 
	0xdd, 0x4b, 0xab, 0x3e, 0x20, 0x74, 0x88, 0xbe, 0xbf, 0xa0, 0x11, 0xbe, 
	0x36, 0xf6, 0x57, 0x3e, 0x4a, 0x90, 0x70, 0x3e, 0x00, 0x85, 0xfe, 0x3b, 
	0x38, 0x10, 0x6e, 0x3d, 0xa0, 0xba, 0x89, 0x3c, 0x6c, 0x52, 0xfc, 0xbd, 
	0xa4, 0x36, 0x8f, 0x3d, 0xa1, 0x5b, 0xb0, 0x3e, 0xea, 0x2b, 0x30, 0x3e, 
	0x25, 0xf7, 0xa0, 0x3e, 0x93, 0x67, 0x1f, 0xbe, 0x80, 0x32, 0x77, 0xbc, 
	0x2b, 0x45, 0xa9, 0x3e, 0x4a, 0xc2, 0x9e, 0xbe, 0x47, 0x5e, 0x8f, 0x3e, 
	0x6f, 0xf2, 0x55, 0xbe, 0xfc, 0xc4, 0x59, 0xbe, 0x80, 0x66, 0x0c, 0xbd, 
	0x48, 0x30, 0x78, 0xbe, 0x16, 0xbb, 0x2d, 0x3e, 0x70, 0xdf, 0xf6, 0xbd, 
	0x40, 0x8c, 0xc3, 0xbb, 0x74, 0x5f, 0x0c, 0xbe, 0xc0, 0xb3, 0xa2, 0xbe, 
	0x73, 0xfd, 0x29, 0xbe, 0x08, 0x40, 0x15, 0x3e, 0x27, 0x65, 0x82, 0x3e, 
	0xba, 0x3f, 0xad, 0xbe, 0x80, 0xbe, 0xd1, 0x3c, 0xed, 0x29, 0x8f, 0x3e, 
	0xb0, 0xb6, 0xba, 0x3d, 0x80, 0x8f, 0xd2, 0x3b, 0xe0, 0xa4, 0x16, 0xbe, 
	0x91, 0xe3, 0x37, 0xbe, 0x1e, 0xbf, 0x45, 0x3e, 0x2c, 0x60, 0x8e, 0xbd, 
	0xd0, 0xfe, 0x15, 0x3d, 0x1d, 0xcc, 0xa1, 0x3e, 0x9e, 0x64, 0x26, 0x3e, 
	0x20, 0x97, 0x1b, 0xbe, 0x4e, 0xbe, 0x46, 0x3e, 0x1c, 0x52, 0xf1, 0x3d, 
	0x17, 0x55, 0xaf, 0x3e, 0x7e, 0x78, 0x20, 0x3e, 0xb1, 0x87, 0x9b, 0x3e, 
	0x20, 0x67, 0xd3, 0x3d, 0x78, 0x9d, 0xbd, 0x3d, 0x30, 0x63, 0x34, 0x3d, 
	0x30, 0x9f, 0x18, 0x3d, 0x06, 0x01, 0x6f, 0x3e, 0x80, 0xae, 0x62, 0x3c, 
	0xf9, 0x5b, 0xaa, 0x3e, 0x08, 0x31, 0xc9, 0xbd, 0x80, 0xc6, 0xa1, 0x3b, 
	0x72, 0x38, 0x6f, 0x3e, 0x0f, 0x2e, 0x27, 0xbe, 0x88, 0x04, 0x5e, 0xbd, 
	0xb9, 0xff, 0x9d, 0x3e, 0xbb, 0xc1, 0xa8, 0x3e, 0x39, 0xb6, 0x8f, 0x3e, 
	0x38, 0x0e, 0x90, 0x3d, 0x4e, 0x0d, 0x2b, 0x3e, 0xcf, 0x6d, 0x8d, 0x3e, 
	0x86, 0xe2, 0x9f, 0xbe, 0x4a, 0xa9, 0x2b, 0x3e, 0xbe, 0xe2, 0x9b, 0xbe, 
	0x67, 0x7c, 0x9f, 0x3e, 0xd0, 0x45, 0xf6, 0xbd, 0xe5, 0xfe, 0x4d, 0xbe, 
	0x11, 0xf3, 0x90, 0x3e, 0xa7, 0x6d, 0x86, 0x3e, 0xa4, 0x5f, 0xa8, 0xbd, 
	0x0c, 0x5c, 0x80, 0x3d, 0x01, 0x6d, 0x87, 0xbe, 0x9e, 0x2d, 0x76, 0x3e, 
	0xef, 0x0a, 0x29, 0xbe, 0x9e, 0xf4, 0x5a, 0x3e, 0x0b, 0xf8, 0x82, 0xbe, 
	0x88, 0x9a, 0x44, 0xbd, 0x08, 0x57, 0xae, 0x3d, 0xb8, 0x11, 0xf1, 0xbd, 
	0x1b, 0x62, 0x9b, 0x3e, 0x20, 0xea, 0x19, 0x3d, 0x96, 0xb0, 0x5d, 0x3e, 
	0xcf, 0x05, 0x42, 0xbe, 0xcc, 0xed, 0x95, 0xbd, 0xc0, 0x37, 0xd6, 0x3d, 
	0xad, 0xb3, 0x82, 0x3e, 0x37, 0x7c, 0x16, 0xbe, 0x07, 0xfb, 0x96, 0x3e, 
	0x8e, 0x18, 0x41, 0x3e, 0x28, 0xa4, 0x5b, 0xbd, 0xf6, 0x41, 0x41, 0x3e, 
	0x55, 0x81, 0xa1, 0x3e, 0x70, 0xee, 0x20, 0x3d, 0x07, 0x99, 0x8c, 0x3e, 
	0x50, 0x6d, 0x63, 0xbd, 0x4e, 0xfa, 0x4c, 0xbe, 0x7a, 0x5d, 0x55, 0x3e, 
	0x6f, 0xa4, 0x6a, 0xbe, 0x52, 0x21, 0x34, 0x3e, 0x7c, 0x6a, 0xb6, 0xbd, 
	0x00, 0xcb, 0x60, 0xbe, 0x80, 0xfc, 0x0d, 0xbc, 0x40, 0x0d, 0x90, 0x3d, 
	0x97, 0xca, 0x5e, 0xbe, 0x7a, 0x4b, 0x2e, 0x3e, 0x75, 0xaf, 0x94, 0x3e, 
	0xf6, 0x6c, 0x7d, 0x3e, 0xc0, 0x4e, 0x12, 0x3c, 0x00, 0x44, 0xbc, 0xb9, 
	0x33, 0xff, 0x8d, 0x3e, 0xcf, 0x06, 0x9b, 0x3e, 0x10, 0x04, 0xc8, 0xbc, 
	0x7c, 0x9c, 0x8b, 0xbd, 0x66, 0xbd, 0x70, 0x3e, 0xdf, 0x0f, 0x83, 0x3e, 
	0xac, 0xac, 0x12, 0x3e, 0x04, 0xe2, 0xa0, 0x3d, 0x00, 0x7c, 0xdf, 0xb9, 
	0x5f, 0x0b, 0x90, 0x3e, 0x1a, 0x95, 0x43, 0xbe, 0x60, 0x7e, 0x61, 0x3c, 
	0xc0, 0xb3, 0xa8, 0xbe, 0x0f, 0x02, 0x84, 0x3e, 0x05, 0x6d, 0xb0, 0x3e, 
	0xe3, 0x81, 0xa0, 0xbe, 0x7d, 0x5d, 0xa3, 0xbe, 0x5c, 0x78, 0xc1, 0x3d, 
	0x4f, 0xb5, 0x2c, 0xbe, 0x7e, 0x27, 0x26, 0x3e, 0xcd, 0xb9, 0x91, 0x3e, 
	0xf1, 0xdf, 0xab, 0xbe, 0xf2, 0xb9, 0x98, 0xbe, 0xe0, 0x4c, 0xcf, 0x3c, 
	0x16, 0x9d, 0x79, 0xbe, 0xe0, 0x2b, 0xc7, 0x3c, 0x80, 0x72, 0x54, 0x3b, 
	0x44, 0x02, 0x0d, 0x3e, 0x80, 0x3a, 0x0c, 0xbb, 0x40, 0x3b, 0x7b, 0xbc, 
	0x02, 0x19, 0xf9, 0xbd, 0xdb, 0xdd, 0xa8, 0x3e, 0x44, 0x4c, 0x9a, 0xbd, 
	0xe9, 0xcb, 0x42, 0xbe, 0x4c, 0x56, 0xaf, 0x3d, 0xe1, 0x18, 0x87, 0x3e, 
	0x22, 0x7c, 0x2e, 0x3e, 0x60, 0xe9, 0xa6, 0xbc, 0x5e, 0x6c, 0xa8, 0xbe, 
	0xf8, 0xb7, 0x88, 0x3d, 0x4c, 0x08, 0xf3, 0x3d, 0xfa, 0x6f, 0x7b, 0x3e, 
	0xc8, 0x46, 0x82, 0x3d, 0x60, 0xb9, 0x02, 0xbe, 0x80, 0x90, 0x8f, 0x3b, 
	0x69, 0xb7, 0x06, 0xbe, 0xdb, 0xa5, 0xb1, 0x3e, 0x5f, 0x7d, 0x2a, 0xbe, 
	0xde, 0x57, 0x09, 0x3e, 0xf6, 0xc4, 0x60, 0x3e, 0x80, 0x97, 0xce, 0xbc, 
	0x60, 0xa3, 0x6e, 0xbd, 0x30, 0xa6, 0xa4, 0x3d, 0x20, 0x6d, 0x8c, 0xbd, 
	0x00, 0x63, 0x23, 0x3b, 0x42, 0xfe, 0xff, 0xff, 0x04, 0x00, 0x00, 0x00, 
	0x78, 0x00, 0x00, 0x00, 0x01, 0x9b, 0x03, 0x11, 0x00, 0x00, 0x00, 0x00, 
	0xce, 0x4a, 0x63, 0x91, 0x00, 0x00, 0x00, 0x00, 0x00, 0x00, 0x00, 0x00, 
	0x00, 0x00, 0x00, 0x00, 0x00, 0x00, 0x00, 0x00, 0x00, 0x00, 0x00, 0x00, 
	0xb2, 0x27, 0xa3, 0x10, 0xc2, 0x32, 0x3f, 0x90, 0x12, 0xa8, 0x6d, 0x98, 
	0xb5, 0xa6, 0x0c, 0x18, 0x98, 0x4b, 0x8d, 0x90, 0x66, 0x72, 0x23, 0x99, 
	0x90, 0x16, 0x33, 0x19, 0xc8, 0x31, 0xb2, 0x18, 0xfc, 0x46, 0x50, 0x99, 
	0xa1, 0x68, 0xa6, 0x90, 0xed, 0x8e, 0xb0, 0x8f, 0x00, 0x00, 0x00, 0x00, 
	0xb6, 0xa2, 0x33, 0x99, 0xb3, 0xa6, 0xeb, 0x8f, 0x5e, 0xcf, 0x69, 0x17, 
	0x68, 0x2e, 0xf6, 0x17, 0x81, 0x18, 0xe3, 0x18, 0x36, 0x0d, 0xc0, 0x98, 
	0x01, 0x6c, 0x9f, 0x98, 0xff, 0x2e, 0xc1, 0x95, 0x48, 0xe7, 0x18, 0x19, 
	0xdf, 0xbf, 0x64, 0x19, 0xc6, 0xfe, 0xff, 0xff, 0x04, 0x00, 0x00, 0x00, 
	0x14, 0x00, 0x00, 0x00, 0x92, 0x81, 0x0f, 0x1a, 0x00, 0x00, 0x00, 0x00, 
	0x00, 0x00, 0x00, 0x00, 0x45, 0x05, 0x76, 0x91, 0x86, 0x90, 0x20, 0x12, 
	0xe6, 0xfe, 0xff, 0xff, 0x04, 0x00, 0x00, 0x00, 0x78, 0x00, 0x00, 0x00, 
	0x8e, 0xa7, 0xea, 0x18, 0x00, 0x00, 0x00, 0x00, 0x00, 0x00, 0x00, 0x00, 
	0x2e, 0x7e, 0x48, 0x99, 0x00, 0x00, 0x00, 0x00, 0x00, 0x00, 0x00, 0x00, 
	0x00, 0x00, 0x00, 0x00, 0x7b, 0x31, 0xd0, 0x90, 0x17, 0xe4, 0x76, 0x17, 
	0xae, 0xb9, 0xb8, 0x0f, 0x41, 0xe8, 0x11, 0x91, 0x00, 0x00, 0x00, 0x00, 
	0xa9, 0xb9, 0x15, 0x19, 0x00, 0x00, 0x00, 0x00, 0x00, 0x00, 0x00, 0x00, 
	0xb0, 0x14, 0x52, 0x19, 0x30, 0x6d, 0x3e, 0x18, 0xd8, 0xef, 0x15, 0x99, 
	0x57, 0xa2, 0x6b, 0x19, 0xe6, 0x59, 0xe4, 0x98, 0x00, 0x00, 0x00, 0x00, 
	0xd1, 0xfa, 0x3d, 0x19, 0x32, 0xc7, 0xb3, 0x18, 0xc5, 0x6f, 0x12, 0x11, 
	0x5f, 0xc5, 0x34, 0x90, 0x50, 0xfc, 0x4d, 0x18, 0xbc, 0x46, 0x3e, 0x18, 
	0xa4, 0x7d, 0x3a, 0x11, 0x1f, 0xfe, 0x47, 0x19, 0x47, 0xe8, 0x42, 0x19, 
	0xa0, 0xfa, 0xff, 0xff, 0xa4, 0xfa, 0xff, 0xff, 0x0f, 0x00, 0x00, 0x00, 
	0x4d, 0x4c, 0x49, 0x52, 0x20, 0x43, 0x6f, 0x6e, 0x76, 0x65, 0x72, 0x74, 
	0x65, 0x64, 0x2e, 0x00, 0x01, 0x00, 0x00, 0x00, 0x14, 0x00, 0x00, 0x00, 
	0x00, 0x00, 0x0e, 0x00, 0x18, 0x00, 0x14, 0x00, 0x10, 0x00, 0x0c, 0x00, 
	0x08, 0x00, 0x04, 0x00, 0x0e, 0x00, 0x00, 0x00, 0x14, 0x00, 0x00, 0x00, 
	0x1c, 0x00, 0x00, 0x00, 0x24, 0x01, 0x00, 0x00, 0x28, 0x01, 0x00, 0x00, 
	0x2c, 0x01, 0x00, 0x00, 0x04, 0x00, 0x00, 0x00, 0x6d, 0x61, 0x69, 0x6e, 
	0x00, 0x00, 0x00, 0x00, 0x04, 0x00, 0x00, 0x00, 0xcc, 0x00, 0x00, 0x00, 
	0x84, 0x00, 0x00, 0x00, 0x50, 0x00, 0x00, 0x00, 0x14, 0x00, 0x00, 0x00, 
	0x00, 0x00, 0x0e, 0x00, 0x1a, 0x00, 0x14, 0x00, 0x10, 0x00, 0x0c, 0x00, 
	0x0b, 0x00, 0x04, 0x00, 0x0e, 0x00, 0x00, 0x00, 0x1c, 0x00, 0x00, 0x00, 
	0x00, 0x00, 0x00, 0x09, 0x1c, 0x00, 0x00, 0x00, 0x20, 0x00, 0x00, 0x00, 
	0x01, 0x00, 0x00, 0x00, 0x00, 0x00, 0x06, 0x00, 0x08, 0x00, 0x04, 0x00, 
	0x06, 0x00, 0x00, 0x00, 0x00, 0x00, 0x80, 0x3f, 0x01, 0x00, 0x00, 0x00, 
	0x0a, 0x00, 0x00, 0x00, 0x01, 0x00, 0x00, 0x00, 0x09, 0x00, 0x00, 0x00, 
	0x9a, 0xff, 0xff, 0xff, 0x10, 0x00, 0x00, 0x00, 0x00, 0x00, 0x00, 0x08, 
	0x0c, 0x00, 0x00, 0x00, 0x10, 0x00, 0x00, 0x00, 0x68, 0xfb, 0xff, 0xff, 
	0x01, 0x00, 0x00, 0x00, 0x09, 0x00, 0x00, 0x00, 0x03, 0x00, 0x00, 0x00, 
	0x08, 0x00, 0x00, 0x00, 0x06, 0x00, 0x00, 0x00, 0x02, 0x00, 0x00, 0x00, 
	0xca, 0xff, 0xff, 0xff, 0x10, 0x00, 0x00, 0x00, 0x00, 0x00, 0x00, 0x08, 
	0x10, 0x00, 0x00, 0x00, 0x14, 0x00, 0x00, 0x00, 0xba, 0xff, 0xff, 0xff, 
	0x00, 0x00, 0x00, 0x01, 0x01, 0x00, 0x00, 0x00, 0x08, 0x00, 0x00, 0x00, 
	0x03, 0x00, 0x00, 0x00, 0x07, 0x00, 0x00, 0x00, 0x05, 0x00, 0x00, 0x00, 
	0x01, 0x00, 0x00, 0x00, 0x00, 0x00, 0x0e, 0x00, 0x16, 0x00, 0x00, 0x00, 
	0x10, 0x00, 0x0c, 0x00, 0x0b, 0x00, 0x04, 0x00, 0x0e, 0x00, 0x00, 0x00, 
	0x18, 0x00, 0x00, 0x00, 0x00, 0x00, 0x00, 0x08, 0x18, 0x00, 0x00, 0x00, 
	0x1c, 0x00, 0x00, 0x00, 0x00, 0x00, 0x06, 0x00, 0x08, 0x00, 0x07, 0x00, 
	0x06, 0x00, 0x00, 0x00, 0x00, 0x00, 0x00, 0x01, 0x01, 0x00, 0x00, 0x00, 
	0x07, 0x00, 0x00, 0x00, 0x03, 0x00, 0x00, 0x00, 0x00, 0x00, 0x00, 0x00, 
	0x04, 0x00, 0x00, 0x00, 0x03, 0x00, 0x00, 0x00, 0x01, 0x00, 0x00, 0x00, 
	0x0a, 0x00, 0x00, 0x00, 0x01, 0x00, 0x00, 0x00, 0x00, 0x00, 0x00, 0x00, 
	0x0b, 0x00, 0x00, 0x00, 0xc0, 0x03, 0x00, 0x00, 0x54, 0x03, 0x00, 0x00, 
	0xe8, 0x02, 0x00, 0x00, 0x98, 0x02, 0x00, 0x00, 0x54, 0x02, 0x00, 0x00, 
	0x0c, 0x02, 0x00, 0x00, 0xc4, 0x01, 0x00, 0x00, 0x4c, 0x01, 0x00, 0x00, 
	0xcc, 0x00, 0x00, 0x00, 0x60, 0x00, 0x00, 0x00, 0x04, 0x00, 0x00, 0x00, 
	0x82, 0xfc, 0xff, 0xff, 0x00, 0x00, 0x00, 0x01, 0x14, 0x00, 0x00, 0x00, 
	0x1c, 0x00, 0x00, 0x00, 0x1c, 0x00, 0x00, 0x00, 0x0b, 0x00, 0x00, 0x00, 
	0x34, 0x00, 0x00, 0x00, 0x02, 0x00, 0x00, 0x00, 0xff, 0xff, 0xff, 0xff, 
	0x05, 0x00, 0x00, 0x00, 0x6c, 0xfc, 0xff, 0xff, 0x19, 0x00, 0x00, 0x00, 
	0x53, 0x74, 0x61, 0x74, 0x65, 0x66, 0x75, 0x6c, 0x50, 0x61, 0x72, 0x74, 
	0x69, 0x74, 0x69, 0x6f, 0x6e, 0x65, 0x64, 0x43, 0x61, 0x6c, 0x6c, 0x3a, 
	0x30, 0x00, 0x00, 0x00, 0x02, 0x00, 0x00, 0x00, 0x01, 0x00, 0x00, 0x00, 
	0x05, 0x00, 0x00, 0x00, 0xda, 0xfc, 0xff, 0xff, 0x00, 0x00, 0x00, 0x01, 
	0x14, 0x00, 0x00, 0x00, 0x1c, 0x00, 0x00, 0x00, 0x1c, 0x00, 0x00, 0x00, 
	0x0a, 0x00, 0x00, 0x00, 0x44, 0x00, 0x00, 0x00, 0x02, 0x00, 0x00, 0x00, 
	0xff, 0xff, 0xff, 0xff, 0x05, 0x00, 0x00, 0x00, 0xc4, 0xfc, 0xff, 0xff, 
	0x2a, 0x00, 0x00, 0x00, 0x6d, 0x6f, 0x64, 0x65, 0x6c, 0x2f, 0x64, 0x65, 
	0x6e, 0x73, 0x65, 0x5f, 0x32, 0x2f, 0x4d, 0x61, 0x74, 0x4d, 0x75, 0x6c, 
	0x3b, 0x6d, 0x6f, 0x64, 0x65, 0x6c, 0x2f, 0x64, 0x65, 0x6e, 0x73, 0x65, 
	0x5f, 0x32, 0x2f, 0x42, 0x69, 0x61, 0x73, 0x41, 0x64, 0x64, 0x00, 0x00, 
	0x02, 0x00, 0x00, 0x00, 0x01, 0x00, 0x00, 0x00, 0x05, 0x00, 0x00, 0x00, 
	0x42, 0xfd, 0xff, 0xff, 0x00, 0x00, 0x00, 0x01, 0x14, 0x00, 0x00, 0x00, 
	0x1c, 0x00, 0x00, 0x00, 0x1c, 0x00, 0x00, 0x00, 0x09, 0x00, 0x00, 0x00, 
	0x58, 0x00, 0x00, 0x00, 0x02, 0x00, 0x00, 0x00, 0xff, 0xff, 0xff, 0xff, 
	0x1e, 0x00, 0x00, 0x00, 0x2c, 0xfd, 0xff, 0xff, 0x3d, 0x00, 0x00, 0x00, 
	0x6d, 0x6f, 0x64, 0x65, 0x6c, 0x2f, 0x64, 0x65, 0x6e, 0x73, 0x65, 0x5f, 
	0x31, 0x2f, 0x4d, 0x61, 0x74, 0x4d, 0x75, 0x6c, 0x3b, 0x6d, 0x6f, 0x64, 
	0x65, 0x6c, 0x2f, 0x64, 0x65, 0x6e, 0x73, 0x65, 0x5f, 0x31, 0x2f, 0x52, 
	0x65, 0x6c, 0x75, 0x3b, 0x6d, 0x6f, 0x64, 0x65, 0x6c, 0x2f, 0x64, 0x65, 
	0x6e, 0x73, 0x65, 0x5f, 0x31, 0x2f, 0x42, 0x69, 0x61, 0x73, 0x41, 0x64, 
	0x64, 0x00, 0x00, 0x00, 0x02, 0x00, 0x00, 0x00, 0x01, 0x00, 0x00, 0x00, 
	0x1e, 0x00, 0x00, 0x00, 0xbe, 0xfd, 0xff, 0xff, 0x00, 0x00, 0x00, 0x01, 
	0x14, 0x00, 0x00, 0x00, 0x1c, 0x00, 0x00, 0x00, 0x1c, 0x00, 0x00, 0x00, 
	0x08, 0x00, 0x00, 0x00, 0x50, 0x00, 0x00, 0x00, 0x02, 0x00, 0x00, 0x00, 
	0xff, 0xff, 0xff, 0xff, 0x1e, 0x00, 0x00, 0x00, 0xa8, 0xfd, 0xff, 0xff, 
	0x37, 0x00, 0x00, 0x00, 0x6d, 0x6f, 0x64, 0x65, 0x6c, 0x2f, 0x64, 0x65, 
	0x6e, 0x73, 0x65, 0x2f, 0x4d, 0x61, 0x74, 0x4d, 0x75, 0x6c, 0x3b, 0x6d, 
	0x6f, 0x64, 0x65, 0x6c, 0x2f, 0x64, 0x65, 0x6e, 0x73, 0x65, 0x2f, 0x52, 
	0x65, 0x6c, 0x75, 0x3b, 0x6d, 0x6f, 0x64, 0x65, 0x6c, 0x2f, 0x64, 0x65, 
	0x6e, 0x73, 0x65, 0x2f, 0x42, 0x69, 0x61, 0x73, 0x41, 0x64, 0x64, 0x00, 
	0x02, 0x00, 0x00, 0x00, 0x01, 0x00, 0x00, 0x00, 0x1e, 0x00, 0x00, 0x00, 
	0x9a, 0xfe, 0xff, 0xff, 0x00, 0x00, 0x00, 0x01, 0x10, 0x00, 0x00, 0x00, 
	0x10, 0x00, 0x00, 0x00, 0x07, 0x00, 0x00, 0x00, 0x24, 0x00, 0x00, 0x00, 
	0x0c, 0xfe, 0xff, 0xff, 0x14, 0x00, 0x00, 0x00, 0x6d, 0x6f, 0x64, 0x65, 
	0x6c, 0x2f, 0x64, 0x65, 0x6e, 0x73, 0x65, 0x5f, 0x32, 0x2f, 0x4d, 0x61, 
	0x74, 0x4d, 0x75, 0x6c, 0x00, 0x00, 0x00, 0x00, 0x02, 0x00, 0x00, 0x00, 
	0x05, 0x00, 0x00, 0x00, 0x1e, 0x00, 0x00, 0x00, 0xde, 0xfe, 0xff, 0xff, 
	0x00, 0x00, 0x00, 0x01, 0x10, 0x00, 0x00, 0x00, 0x10, 0x00, 0x00, 0x00, 
	0x06, 0x00, 0x00, 0x00, 0x24, 0x00, 0x00, 0x00, 0x50, 0xfe, 0xff, 0xff, 
	0x14, 0x00, 0x00, 0x00, 0x6d, 0x6f, 0x64, 0x65, 0x6c, 0x2f, 0x64, 0x65, 
	0x6e, 0x73, 0x65, 0x5f, 0x31, 0x2f, 0x4d, 0x61, 0x74, 0x4d, 0x75, 0x6c, 
	0x00, 0x00, 0x00, 0x00, 0x02, 0x00, 0x00, 0x00, 0x1e, 0x00, 0x00, 0x00, 
	0x1e, 0x00, 0x00, 0x00, 0x22, 0xff, 0xff, 0xff, 0x00, 0x00, 0x00, 0x01, 
	0x10, 0x00, 0x00, 0x00, 0x10, 0x00, 0x00, 0x00, 0x05, 0x00, 0x00, 0x00, 
	0x20, 0x00, 0x00, 0x00, 0x94, 0xfe, 0xff, 0xff, 0x12, 0x00, 0x00, 0x00, 
	0x6d, 0x6f, 0x64, 0x65, 0x6c, 0x2f, 0x64, 0x65, 0x6e, 0x73, 0x65, 0x2f, 
	0x4d, 0x61, 0x74, 0x4d, 0x75, 0x6c, 0x00, 0x00, 0x02, 0x00, 0x00, 0x00, 
	0x1e, 0x00, 0x00, 0x00, 0x12, 0x00, 0x00, 0x00, 0x62, 0xff, 0xff, 0xff, 
	0x00, 0x00, 0x00, 0x01, 0x10, 0x00, 0x00, 0x00, 0x10, 0x00, 0x00, 0x00, 
	0x04, 0x00, 0x00, 0x00, 0x30, 0x00, 0x00, 0x00, 0xd4, 0xfe, 0xff, 0xff, 
	0x22, 0x00, 0x00, 0x00, 0x6d, 0x6f, 0x64, 0x65, 0x6c, 0x2f, 0x64, 0x65, 
	0x6e, 0x73, 0x65, 0x2f, 0x42, 0x69, 0x61, 0x73, 0x41, 0x64, 0x64, 0x2f, 
	0x52, 0x65, 0x61, 0x64, 0x56, 0x61, 0x72, 0x69, 0x61, 0x62, 0x6c, 0x65, 
	0x4f, 0x70, 0x00, 0x00, 0x01, 0x00, 0x00, 0x00, 0x1e, 0x00, 0x00, 0x00, 
	0xae, 0xff, 0xff, 0xff, 0x00, 0x00, 0x00, 0x01, 0x10, 0x00, 0x00, 0x00, 
	0x10, 0x00, 0x00, 0x00, 0x03, 0x00, 0x00, 0x00, 0x34, 0x00, 0x00, 0x00, 
	0x20, 0xff, 0xff, 0xff, 0x24, 0x00, 0x00, 0x00, 0x6d, 0x6f, 0x64, 0x65, 
	0x6c, 0x2f, 0x64, 0x65, 0x6e, 0x73, 0x65, 0x5f, 0x32, 0x2f, 0x42, 0x69, 
	0x61, 0x73, 0x41, 0x64, 0x64, 0x2f, 0x52, 0x65, 0x61, 0x64, 0x56, 0x61, 
	0x72, 0x69, 0x61, 0x62, 0x6c, 0x65, 0x4f, 0x70, 0x00, 0x00, 0x00, 0x00, 
	0x01, 0x00, 0x00, 0x00, 0x05, 0x00, 0x00, 0x00, 0x00, 0x00, 0x16, 0x00, 
	0x18, 0x00, 0x14, 0x00, 0x00, 0x00, 0x10, 0x00, 0x0c, 0x00, 0x08, 0x00, 
	0x00, 0x00, 0x00, 0x00, 0x00, 0x00, 0x07, 0x00, 0x16, 0x00, 0x00, 0x00, 
	0x00, 0x00, 0x00, 0x01, 0x10, 0x00, 0x00, 0x00, 0x10, 0x00, 0x00, 0x00, 
	0x02, 0x00, 0x00, 0x00, 0x34, 0x00, 0x00, 0x00, 0x88, 0xff, 0xff, 0xff, 
	0x24, 0x00, 0x00, 0x00, 0x6d, 0x6f, 0x64, 0x65, 0x6c, 0x2f, 0x64, 0x65, 
	0x6e, 0x73, 0x65, 0x5f, 0x31, 0x2f, 0x42, 0x69, 0x61, 0x73, 0x41, 0x64, 
	0x64, 0x2f, 0x52, 0x65, 0x61, 0x64, 0x56, 0x61, 0x72, 0x69, 0x61, 0x62, 
	0x6c, 0x65, 0x4f, 0x70, 0x00, 0x00, 0x00, 0x00, 0x01, 0x00, 0x00, 0x00, 
	0x1e, 0x00, 0x00, 0x00, 0x00, 0x00, 0x16, 0x00, 0x1c, 0x00, 0x18, 0x00, 
	0x00, 0x00, 0x14, 0x00, 0x10, 0x00, 0x0c, 0x00, 0x00, 0x00, 0x00, 0x00, 
	0x08, 0x00, 0x07, 0x00, 0x16, 0x00, 0x00, 0x00, 0x00, 0x00, 0x00, 0x01, 
	0x14, 0x00, 0x00, 0x00, 0x20, 0x00, 0x00, 0x00, 0x20, 0x00, 0x00, 0x00, 
	0x01, 0x00, 0x00, 0x00, 0x38, 0x00, 0x00, 0x00, 0x02, 0x00, 0x00, 0x00, 
	0xff, 0xff, 0xff, 0xff, 0x12, 0x00, 0x00, 0x00, 0x04, 0x00, 0x04, 0x00, 
	0x04, 0x00, 0x00, 0x00, 0x19, 0x00, 0x00, 0x00, 0x73, 0x65, 0x72, 0x76, 
	0x69, 0x6e, 0x67, 0x5f, 0x64, 0x65, 0x66, 0x61, 0x75, 0x6c, 0x74, 0x5f, 
	0x69, 0x6e, 0x70, 0x75, 0x74, 0x5f, 0x31, 0x3a, 0x30, 0x00, 0x00, 0x00, 
	0x02, 0x00, 0x00, 0x00, 0x01, 0x00, 0x00, 0x00, 0x12, 0x00, 0x00, 0x00, 
	0x02, 0x00, 0x00, 0x00, 0x20, 0x00, 0x00, 0x00, 0x04, 0x00, 0x00, 0x00, 
	0xf4, 0xff, 0xff, 0xff, 0x19, 0x00, 0x00, 0x00, 0x00, 0x00, 0x00, 0x19, 
	0x0c, 0x00, 0x0c, 0x00, 0x0b, 0x00, 0x00, 0x00, 0x00, 0x00, 0x04, 0x00, 
	0x0c, 0x00, 0x00, 0x00, 0x09, 0x00, 0x00, 0x00, 0x00, 0x00, 0x00, 0x09
};
const int model_data_len = 8640;
